e </w>
s </w>
a </w>
n </w>
o </w>
t h
e r
. </w>
e n
t </w>
, </w>
a r
o r
e s
l </w>
y </w>
i n
d </w>
a n
o n
o s</w>
t i
c i
d e</w>
e s</w>
th e</w>
q u
a s</w>
r e
t o</w>
r o
o n</w>
e n</w>
l a</w>
a l
s i
o u
o m
a d
qu e</w>
e l</w>
p o
en t
f </w>
a m
e m
or </w>
er </w>
t r
u n
l i
e c
o f</w>
ó n</w>
a l</w>
d i
in g
i s</w>
an d</w>
a n</w>
ing </w>
a t</w>
a c
e d</w>
s t
a t
i n</w>
es t
c on
ar </w>
m i
s e</w>
p ro
r es
a b
s u
i c
d o</w>
a ci
d e
l os</w>
po s
p e
p ar
e l
c om
u r
a ti
th at</w>
I </w>
i d
r </w>
a pos
apos ;
& apos;
v e</w>
r i
n o</w>
w h
a s
h </w>
? </w>
n o
c u
l e
l e</w>
en t</w>
s e
h a
ent e</w>
p er
- </w>
w i
l as</w>
l o</w>
u ro
y ou
i t
p or
i m
aci ón</w>
i t</w>
s o
l y</w>
p u
e x
ad o</w>
r e</w>
b i
v i
f or
w e</w>
t er
E uro
m e</w>
u n</w>
f or</w>
u s
t e</w>
you </w>
d el</w>
th is</w>
p or</w>
un a</w>
i s
a d</w>
b e</w>
a g
t o
w </w>
C om
k </w>
u c
l o
th </w>
par a</w>
o p
v er
l d</w>
b e
on es</w>
ati on</w>
m e
t u
a p
c on</w>
Euro pe
ar e</w>
t en
g r
ti c
er e</w>
g u
c o
í a</w>
n i
f i
b u
m </w>
l u
s h
no t</w>
ti on</w>
o t
l l</w>
n e
s o</w>
ha ve</w>
¿ </w>
c h
m a
ar i
ou ld</w>
&apos; s</w>
ci ón</w>
en to</w>
e v
e d
por t
p l
p res
d es
em b
wi th</w>
on s</w>
c e</w>
g h
mi s
; </w>
res id
@ </w>
@ -
@- @</w>
u l
g o</w>
á s</w>
á </w>
k e</w>
at e</w>
P resid
qu i
ou n
em os</w>
p re
a y</w>
li c
! </w>
si ón</w>
m an
g i
en ci
g o
ad os</w>
m o
c re
b re</w>
n u
f u
de b
é </w>
d er
re c
al l</w>
f ic
í </w>
h a</w>
ti v
t s</w>
ic h</w>
a u
si on</w>
p r
wh ich</w>
t ur
am os</w>
p </w>
wi ll</w>
. .</w>
o b
t a
al es</w>
Europe an</w>
est a</w>
o l
en d
b y</w>
h as</w>
ou t</w>
. ..</w>
th e
p on
am bi
P ar
in ter
us t</w>
f in
U ni
com o</w>
qu ot
i r</w>
est e</w>
& quot
&quot ;</w>
l am
p a
an t
ad a</w>
su </w>
s tr
r a
id ad</w>
s er
m ás</w>
m in
w or
th er</w>
h o
a v
to d
es tr
for m
em p
on e</w>
ec h
an te</w>
an do</w>
m ent</w>
p i
ou r</w>
0 0
so bre</w>
er a</w>
ab le</w>
on al</w>
t a</w>
j o</w>
im port
tr i
l ar
o c
se ñ
Com mis
am ente</w>
di s
i sión</w>
p ec
s t</w>
e t</w>
bu t</w>
p ri
le g
no w</w>
wh at</w>
gh t</w>
t y</w>
s ti
f er
h e</w>
con t
it y</w>
u d
m u
Com isión</w>
ci al</w>
é n</w>
an t</w>
por t</w>
de ci
d uc
po si
b l
d o
me di
er s</w>
per o</w>
enci a</w>
m o</w>
a y
c an</w>
( </w>
) </w>
s ec
h i
M r</w>
t os</w>
w as</w>
t t
al ly</w>
al i
w ould</w>
es to</w>
th ere</w>
es e</w>
m ar
a i
d ad</w>
Euro p
si </w>
f r
d em
aci ones</w>
es ti
l í
C on
c ri
or a</w>
f ro
E st
n ec
er o</w>
fro m</w>
m y</w>
: </w>
in c
m or
0 </w>
&apos; t</w>
un d
or d
t ambi
h ac
tambi én</w>
par ti
Commis sion</w>
ent s</w>
b le</w>
or es</w>
sh ould</w>
nec es
s om
z </w>
al so</w>
es s</w>
c oun
e f
or i
y a</w>
nu estr
em </w>
ou r
e p
in i
m uc
at es</w>
g </w>
the y</w>
h ab
u p</w>
v er</w>
k ing</w>
l es</w>
li ke</w>
a f
n os</w>
an d
re l
an s
con c
be en</w>
lam ento</w>
ti en
Presid ent</w>
m ust</w>
c o</w>
h u
en er
ec on
ó </w>
pro c
ati v
po lí
polí tic
m ente</w>
en c
&apos; </w>
E </w>
in t
¡ </w>
S t
ver y</w>
u s</w>
á n</w>
ent r
con tr
b o
i f</w>
emb er</w>
est á</w>
señ or</w>
es o</w>
p en
am </w>
r u
mor e</w>
cu l
s es</w>
en ti
s on</w>
ci ones</w>
ati ons</w>
st a</w>
Uni ón</w>
li am
sti tu
c ar
a j
mi </w>
con si
o tr
po d
c a</w>
ari o</w>
a ñ
pa í
l l
g un
fi r
ti ve</w>
pro bl
el l</w>
o d</w>
an ci
t ed</w>
el y</w>
c h</w>
y o</w>
e ar
b r
d os</w>
e g
pu e
al mente</w>
a si
ab out</w>
an ce</w>
tr ans
m un
re g
Presid ente</w>
it s</w>
p as
a se</w>
Uni on</w>
Par lamento</w>
ci l</w>
m er
t w
ent es</w>
su s</w>
Europe a</w>
liam ent</w>
th ing</w>
em ent</w>
ad es</w>
v en
v e
f ac
res pon
h an</w>
Par liament</w>
ar y</w>
i r
emb r
2 00
am i
th ese</w>
g e</w>
Est ados</w>
to do</w>
a h
ti ons</w>
you r</w>
b ec
o ther</w>
mi embr
e uro
d s</w>
en ce</w>
pro duc
o per
m on
si n</w>
tr ab
g h</w>
s ab
the ir</w>
in for
en do</w>
t er</w>
euro pe
est ab
c an
di rec
ech o</w>
pres ent
e ñ
mu y</w>
M ember</w>
i st
E U
in ci
ac c
k now</w>
ant es</w>
re port</w>
z a</w>
tod os</w>
per s
j ust</w>
g et</w>
ad as</w>
c as
m at
fi ci
au se</w>
ic </w>
St ates</w>
in v
h ere</w>
infor me</w>
su p
ti me</w>
wh o</w>
w n</w>
al l
ou s</w>
o f
m en
se jo</w>
t ec
s er</w>
z ar</w>
le v
p li
i a</w>
ú n</w>
b lic
C oun
se g
Con sejo</w>
í as</w>
for e</w>
f e
an to</w>
probl em
Coun cil</w>
miembr os</w>
si tu
5 </w>
Q u
j ec
res pec
d u
po li
wor k</w>
v o
i l
ti es</w>
ne ed</w>
a qu
m an</w>
th er
ent re</w>
Europ e</w>
qu é</w>
su b
am e</w>
deb ate</w>
es t</w>
c or
nu ev
v ot
d a</w>
in o</w>
v id
g an
ac u
w ay</w>
b er
op le</w>
at ed</w>
e t
EU </w>
i li
econ om
k s</w>
n ic
pro pu
bi li
a in
m ents</w>
pro pos
p o</w>
com e</w>
in form
v el
g ar</w>
c es</w>
ev er</w>
ent os</w>
re gi
on ly</w>
ri ght</w>
Europ a</w>
ent a</w>
pr inci
paí ses</w>
a st
s el
on g</w>
f av
res ul
pe ople</w>
c er
ha y</w>
bi en</w>
ad i
gr am
su r
th in
tri es</w>
ar ro
f und
com p
f ec
ti m
wh en</w>
t or
ar d</w>
t or</w>
ag re
e y</w>
mi ento</w>
ari a</w>
s pe
bec ause</w>
polític a</w>
ag e</w>
ag r
ac tu
inter n
acu er
consi der
ati onal</w>
&apos; m</w>
di f
i do</w>
est os</w>
ne w</w>
coun tries</w>
e j
ta ke</w>
est as</w>
o se</w>
a jo</w>
oc r
tien e</w>
un to</w>
ad op
so ci
com pe
t ar</w>
ah ora</w>
tur e</w>
1 </w>
w ell</w>
ent al</w>
inc lu
as í</w>
l a
t ar
as t</w>
me j
S eñ
g ro
e ve</w>
s a</w>
pro gram
ma y
is l
som e</w>
po lic
&apos; re</w>
é s</w>
pue de</w>
g re
2 </w>
si g
I n
ac e</w>
h e
muc h
u st
su re</w>
d on</w>
pro tec
ai d</w>
import ant</w>
t anto</w>
thin k</w>
j e
tr at
t om
cu esti
pu ed
ma ke</w>
tr y</w>
ex c
wi th
ho w</w>
par te</w>
hac er</w>
th em</w>
i ón</w>
an y</w>
pri m
c ap
seg ur
cu ando</w>
w ere</w>
vel op
im </w>
e e</w>
som e
e ur
mi tt
a po
U E</w>
d ur
deb er
so cial</w>
de velop
es pe
cre o</w>
de be</w>
in to</w>
con su
t ing</w>
por que</w>
ser v
si ble</w>
w ant</w>
lu gar</w>
co oper
an ti
ac k</w>
N o</w>
an s</w>
di c
dem ocr
g ener
leg isl
d as</w>
aqu í</w>
Europe o</w>
tiv a</w>
ech os</w>
em ente</w>
so lu
in e</w>
g e
ci on
o lu
is su
polic y</w>
tiv o</w>
gh ts</w>
cont in
acuer do</w>
tic al</w>
si st
r .</w>
e en</w>
th ose</w>
d ing</w>
c a
t al
pu esto</w>
v al
g ar
ali z
se gu
wh ere</w>
des arro
o y</w>
1 9
h echo</w>
import ante</w>
su ch</w>
c le
c ur
i g
pers on
ve z</w>
an os</w>
s ay</w>
C h
in stitu
j u
ther e
h emos</w>
s al
n or
v ing</w>
com un
si s</w>
ci o</w>
ter i
s í</w>
es s
go od</w>
m os</w>
id ades</w>
p le</w>
enc y</w>
ex ist
lo o
e di
m a</w>
se e</w>
ay ud
ari os</w>
ci ud
ro u
ob je
% </w>
3 </w>
ener g
gu l
h is</w>
be li
at ing</w>
t an</w>
ar se</w>
form a</w>
el ec
Qu é</w>
d ec
si on
mis mo</w>
s ó
d r
bu en
l lo</w>
ha d</w>
g a</w>
conc er
qui ero</w>
there fore</w>
sup port</w>
r a</w>
ar á</w>
o cu
in a</w>
hu man
al s</w>
e a</w>
7 </w>
ó mi
pro b
v a</w>
s en
ha p
ho w
h er
añ os</w>
4 </w>
po in
st ar
wh y</w>
fu er
m om
fir st</w>
how ever</w>
ing s</w>
ti emp
re ad
man y</w>
mar k
an a</w>
th an</w>
ay s</w>
cu m
trab ajo</w>
is tr
contr a</w>
an k</w>
in d
ne go
i de
be ing</w>
ec e</w>
tic a</w>
tw een</w>
deci r</w>
be tween</w>
res olu
al gun
a z
f un
ten er</w>
si ones</w>
ati ve</w>
U n
cont ro
c lar
6 </w>
i </w>
/ </w>
ten emos</w>
sh e</w>
es a</w>
8 </w>
u e</w>
tri bu
per i
em a</w>
th en</w>
ma de</w>
v en</w>
c ould</w>
cul ar</w>
or gan
op ini
w e
s ed</w>
t ado</w>
gr aci
s h</w>
s y
v ed</w>
el lo</w>
só lo</w>
al idad</w>
o ver</w>
fin anci
er es</w>
h er</w>
re ci
port un
f re
di ch
h el
tiemp o</w>
con di
aci on
ser i
est oy</w>
ciud ad
parti cular</w>
ev en</w>
at ur
n ing</w>
der echos</w>
ap pro
r s</w>
D i
beli eve</w>
t re
an g
est án</w>
v es</w>
o ci
o s
propu esta</w>
t es</w>
econ ómi
mer c
mo st</w>
vi r
a in</w>
in cre
ter r
ú l
ex t</w>
des de</w>
mitt ee</w>
ac h</w>
h im</w>
le t</w>
ri ghts</w>
espe ci
ic a</w>
pre ci
pod r
an c
O h</w>
tw o</w>
vi e
m b
si ons</w>
ver n
emb ar
S r.</w>
sec tor</w>
al go</w>
ic e</w>
l ar</w>
ex am
to o</w>
ap lic
h om
nuestr a</w>
t as</w>
trab aj
t al</w>
th ou
un der
e gr
c r
li ber
fund am
d er</w>
pu blic
poli tical</w>
c am
ear s</w>
re gul
con tribu
&apos; ll</w>
Commis sion
si m
es per
ar ds</w>
Com is
9 </w>
tr a
anci a</w>
re d</w>
qu er
econom ic</w>
í an</w>
l ab
ord er</w>
s aid</w>
c our
á n
ci a</w>
c ambi
aci a</w>
i z
en s</w>
se a</w>
si do</w>
en d</w>
so li
ex pres
e ar</w>
cuesti ón</w>
tu </w>
go ing</w>
tur a</w>
G o
di d</w>
pre gun
en g
hac e</w>
desarro llo</w>
fav or</w>
muc h</w>
deb emos</w>
lo c
ain st</w>
d ed</w>
r y</w>
pro pi
respec to</w>
do es</w>
ciudad anos</w>
ra z
ag ainst</w>
y ears</w>
gu i
read y</w>
tiv os</w>
m as</w>
ind us
u p
Commission er</w>
t amente</w>
end a</w>
x </w>
ho y</w>
añ o</w>
est amos</w>
ad ores</w>
n ed</w>
lo w
u m
str uc
graci as</w>
embar go</w>
ti z
com m
segur idad</w>
p lic
tr os</w>
per mi
tod ay</w>
re fer
a h</w>
situ ación</w>
gr an</w>
es tion</w>
pl ace</w>
al is
en mi
R e
fac t</w>
nuestr o</w>
qui si
ú blic
sy st
ativ a</w>
un i
much o</w>
com pro
un tos</w>
in ten
v ol
n a</w>
t ados</w>
neces it
ta k
c </w>
medi das</w>
k ed</w>
li g
ust ed</w>
om </w>
ab ili
ci er
fu l</w>
id a</w>
cri sis</w>
comp le
lo g
b en
re present
poin t</w>
s ino</w>
ó mo</w>
it e</w>
x im
bi er
sti ll</w>
ami ento</w>
aci onal</w>
lo w</w>
l ec
f o
sel f</w>
propos al</w>
enci as</w>
dis cu
us o</w>
r ap
me a
op e</w>
cas o</w>
ta in</w>
par t</w>
s ame</w>
l lev
h ar
th rou
c l
pos sible</w>
so lo</w>
y ing</w>
é r
con f
b us
de j
ci tiz
t en</w>
s as</w>
b re
du ci
gu e</w>
19 9
public </w>
p al
b as
sh i
id os</w>
conc lu
señ ora</w>
mark et</w>
o wn</w>
in de
m s</w>
ic ul
j us
s or
person as</w>
ef fec
ter min
qu estion</w>
so tros</w>
n atur
ocu p
T r
am end
p es
g res
ni fic
ci p
paí s</w>
merc ado</w>
d ar
leg al</w>
th ank</w>
A </w>
ent ly</w>
e p</w>
S </w>
l in
ha sta</w>
sig nific
s in
coun try</w>
c ab
compe ti
su c
n ational</w>
F r
go t</w>
b ack</w>
hu man</w>
est ar</w>
tur al</w>
pl em
no sotros</w>
e ver
otr os</w>
gi ve</w>
ni </w>
posi ble</w>
develop ment</w>
issu e</w>
u se</w>
bu d
d ay</w>
c ada</w>
ta in
em pres
mun ity</w>
e qui
vie w</w>
u m</w>
n om
lo y
fu ture</w>
oun d</w>
l em
can not</w>
pu t</w>
al ready</w>
l ast</w>
l lam
mat er
situ ation</w>
di st
sur es</w>
y e</w>
tod as</w>
f is
f ai
un o</w>
fu e</w>
e ah</w>
tic o</w>
ever y
may or</w>
con stitu
v o</w>
Com mittee</w>
pen s
emp le
n ada</w>
e i
plem ent
y ear</w>
int egr
ou se</w>
as pec
mej or</w>
lo b
c el
th re
bili ty</w>
2 0
ac t</w>
re duc
l li
po co</w>
loo k</w>
p le
an cial</w>
citiz ens</w>
a ve</w>
tien en</w>
ati s
x i
gener al</w>
bo th</w>
ic es</w>
ur e</w>
R </w>
some thing</w>
vir on
re as
cour se</w>
dich o</w>
c lo
am pli
d on
pres u
p unto</w>
at er</w>
cur r
an y
di d
dur ante</w>
europe a</w>
de fin
a k
qu ed
ef ec
cle ar</w>
t ores</w>
re ally</w>
be fore</w>
ne ed
i gu
ten go</w>
mea sures</w>
nuestr os</w>
á c
d y</w>
posi ción</w>
men os</w>
int ro
d ar</w>
ser vi
st e</w>
wor ld</w>
vi s
vo te</w>
fu tur
an ge</w>
vi ol
n ing
e ty</w>
go vern
p end
cu enta</w>
l leg
p úblic
d ra
parti cip
pro gres
und er</w>
al ity</w>
mun do</w>
dif fer
re qui
ord in
tt er</w>
acion ales</w>
pod emos</w>
f in</w>
es ión</w>
pro vi
f ur
ari as</w>
ej emp
t ly</w>
&apos; ve</w>
fic ul
ab a</w>
re con
t e
problem a</w>
pre par
princi pi
es i
t ori
agre ement</w>
do wn</w>
di do</w>
or ías</w>
ú nic
esti g
min istr
de f
c entr
throu gh</w>
s ing</w>
trat a</w>
with in</w>
l uc
an i
z o</w>
s os</w>
em ents</w>
jec t</w>
s enti
ma y</w>
P ro
h ope</w>
tak en</w>
d ía</w>
mom ento</w>
nuev o</w>
f ami
í amos</w>
in di
f e</w>
mu j
emp loy
c ase</w>
ed ad</w>
Señ or</w>
Comis ario</w>
d est
ci os</w>
gre at</w>
algun os</w>
ac ep
h al
agr icul
ac hi
l ong</w>
f le
contro l</w>
u ti
sh o
fin ancial</w>
proc ed
l ed</w>
sec on
e qu
contin u
G ru
emb ers</w>
ter n
M ar
apo yo</w>
T ur
el la</w>
j o
ag ain</w>
fr on
or ity</w>
discu s
as k</w>
with out</w>
otr a</w>
c al
ad em
el los</w>
w om
p ly</w>
acc ep
af ter</w>
st and
sec u
in str
f t</w>
nu mb
w ays</w>
Y eah</w>
en viron
par ece</w>
M rs</w>
b asi
t ad</w>
e b
é l</w>
port eur
cu lar
a prob
segu ir</w>
si a</w>
pu l
posi tion</w>
deb en</w>
hel p</w>
A n
ini ci
w s</w>
comm on</w>
quisi era</w>
rap porteur
e gi
m bi
ac k
p ap
ac tion</w>
mi gr
t í
ejemp lo</w>
pl ant
deber ía</w>
g ent
b ri
pue do</w>
r en
ag u
parti cular
g en
v amos</w>
on g
g lob
otr o</w>
T </w>
l an
A s
ur ity</w>
ob lig
prim er</w>
problem as</w>
M ad
co l
es es</w>
t able</w>
lev el</w>
gar anti
cooper ation</w>
for m</w>
it ed</w>
pl an
com er
in st
li mi
probl em</w>
00 </w>
ac tiv
tt ing</w>
syst em</w>
f ol
human os</w>
adem ás</w>
O </w>
di fer
pued en</w>
s é</w>
futur o</w>
ativ as</w>
str at
mi ll
sin ce</w>
d es</w>
in d</w>
emp re</w>
ide a</w>
d re
inv estig
spe ci
im pro
w el
c all
c li
st as</w>
en sure</w>
sist ema</w>
uti li
dec lar
e fici
en contr
se t</w>
y ec
Com munity</w>
ti onal</w>
inv ol
pon ente</w>
e as</w>
us ed</w>
ti r
me ans</w>
cri min
re co
Gru po</w>
w er</w>
Di rec
buen o</w>
ar ea</w>
compe ten
o k
s af
cooper ación</w>
si empre</w>
at os</w>
intern ational</w>
ayud a</w>
fir m
er os</w>
numb er</w>
tod a</w>
it al</w>
be tter</w>
s atis
e go</w>
in f
neces s
pa ñ
au th
vid a</w>
u al</w>
am b
pro yec
est u
d en
f ri
an im
shi p</w>
nom bre</w>
energ y</w>
ob st
L i
bili dad</w>
2 0</w>
1 0</w>
e ci
d one</w>
t em
a un
mar co</w>
d ades</w>
respon sab
ac h
gent lem
man era</w>
im plement
f al
medi o</w>
on ces</w>
pre ocup
f on
o portun
inform ation</w>
hal f</w>
m ent
ma j
fic </w>
abili ty</w>
compro mi
i d</w>
Tr at
m es</w>
proc ess</w>
l ing</w>
k e
ili dad</w>
re al</w>
protec ción</w>
much os</w>
proc eso</w>
empres as</w>
ad ec
gi ven</w>
gentlem en</w>
tic </w>
pu és</w>
m í
or y</w>
tr es</w>
adi es</w>
ab les</w>
ori ties</w>
A r
ati c</w>
f ar</w>
or ía</w>
úl tim
ch ange</w>
t ú
opini ón</w>
Señ orías</w>
con v
mi d
fundam ental</w>
con cre
end as</w>
trans par
des pués</w>
é n
europe os</w>
des e
gu ar
mat ter</w>
C </w>
á mbi
si ve</w>
mo do</w>
rapporteur </w>
ten dr
e br
s p
ámbi to</w>
at y</w>
su per
thou gh</w>
hi st
L is
ar m
l adies</w>
T re
necess ary</w>
apo y
inform ación</w>
d in
nego ci
indus tri
fin d</w>
ob jec
al th</w>
europe o</w>
t ell</w>
h or
l ess</w>
cu al
n ext</w>
gu star
pon er</w>
pro mo
com ún</w>
di ver
ul es</w>
exam ple</w>
ti po</w>
tic e</w>
wh o
ini ti
an o</w>
rel ación</w>
at t
is mo</w>
problem s</w>
g on
bier no</w>
al u
pu esta</w>
gustar ía</w>
a w
s em
ci r
mill ones</w>
ci vi
n er
aun que</w>
tt le</w>
neces ario</w>
H ouse</w>
co sas</w>
00 0</w>
de termin
b ar
com b
Presid enta</w>
emple o</w>
tic as</w>
í fic
a par
obje tivo</w>
c ómo</w>
cu lo</w>
ha ya</w>
ti do</w>
der echo</w>
ed uc
res pe
sec urity</w>
ac y</w>
comun it
pres ent</w>
em pe
propu estas</w>
wom en</w>
deci sion</w>
st s</w>
k ey</w>
ti mo</w>
P or</w>
podr ía</w>
ent onces</w>
f a
j ur
id as</w>
W h
lam ent
ad or</w>
om e</w>
pon e</w>
G ro
ex to</w>
ic al</w>
entr o</w>
an za</w>
h on
wh e
organ iz
cual qui
A l
direc tive</w>
op portun
la w</w>
Mad am</w>
nego ti
c all</w>
di pu
ten ido</w>
pl an</w>
m ul
ó n
lo gr
ent ales</w>
st and</w>
u el
particular ly</w>
ou s
at en
ok ay</w>
am e
polític as</w>
otr as</w>
intro duc
lli on</w>
ri s
e li
re aliz
b ro
st at
ter ri
resolu ción</w>
P o
es cu
end er</w>
thre e</w>
ou t
Trat ado</w>
N </w>
ar on</w>
li ttle</w>
pr ac
ó xim
pr ác
aj e</w>
Est ado</w>
pe di
al g
consu m
enmi endas</w>
protec tion</w>
ti r</w>
nor mas</w>
respec t</w>
servi cios</w>
ac ción</w>
R u
an other</w>
issu es</w>
mej or
i le</w>
h ear
pro f
ch o
f ul
A m
me an</w>
P </w>
j ob
a ún</w>
ser á</w>
bud get</w>
ne ver</w>
k i
est s</w>
fin al</w>
estab li
ativ o</w>
proc edi
ac er
e very</w>
si bility</w>
su st
v el</w>
Y es</w>
co ordin
si de</w>
pu estos</w>
jus ti
program a</w>
g as</w>
min u
a tr
eg ur
w ard</w>
reg ard</w>
rec ur
H o
m ental</w>
whe ther</w>
g an</w>
em s</w>
resolu tion</w>
estr uc
t el
gon na</w>
er r
g n
dif ficul
c os</w>
hac er
k no
z on
ar eas</w>
do ing</w>
con ver
so y</w>
th ings</w>
at ely</w>
ex tre
princi p
c at
im p
import ancia</w>
por te</w>
nuestr as</w>
ma in
al ways</w>
clar o</w>
In ter
of f</w>
Y </w>
differ ent</w>
t ech
con secu
Tre aty</w>
g in
cu er
es pero</w>
muj eres</w>
an ia</w>
ic o</w>
pu es</w>
est ado</w>
vi sta</w>
Presid encia</w>
fic ación</w>
employ ment</w>
cambi o</w>
bl es</w>
estr at
th ir
ob serv
bo dy</w>
s m
d ud
cer tain</w>
c ru
inc l
ab solu
ni vel</w>
fur ther</w>
p ag
ad ministr
ge ther</w>
g g
tr av
amend ments</w>
ous ly</w>
ac coun
to gether</w>
suc c
an ces</w>
u d</w>
s s</w>
un ca</w>
wh ile</w>
senti do</w>
muc has</w>
deci sión</w>
vo y</w>
a k</w>
raz ón</w>
incl uso</w>
pres id
n acionales</w>
incre as
s ci
cor rec
qu eñ
pal ab
fami li
actu al</w>
l ado</w>
g ente</w>
C u
s pec
pe queñ
garanti zar</w>
b ur
es os</w>
cualqui er</w>
v oc
ch e</w>
who le</w>
li fe</w>
at er
p ur
agre e</w>
par t
ab o
exc el
v ec
mater ia</w>
pr óxim
aplic ación</w>
ven ción</w>
cap aci
ma king</w>
m á
t ema</w>
co leg
condi ciones</w>
ar ía</w>
pas ado</w>
hab er</w>
ame work</w>
need s</w>
li ci
re almente</w>
fe w</w>
Un ited</w>
cuesti ones</w>
er as</w>
pro vid
tr an
n s</w>
on ce</w>
fi ed</w>
ro le</w>
an ts</w>
wor king</w>
M embers</w>
organ is
ev id
pod er</w>
wi sh</w>
w ards</w>
ter s</w>
at a</w>
vi sión</w>
pl en
terr or
com pr
strat eg
cel ebr
conf lic
prim era</w>
our ces</w>
n unca</w>
mon ey</w>
tra de</w>
Gro up</w>
al can
obje tivos</w>
ma in</w>
ser ía</w>
estab a</w>
in no
e k</w>
principi o</w>
propos als</w>
ben efici
f er</w>
tiv es</w>
su fici
and s</w>
i l</w>
o ver
or s</w>
pre v
program me</w>
un os</w>
neces idad</w>
H ey</w>
ef for
j unto</w>
pl az
fav our</w>
pri v
ni ñ
ter ms</w>
mi entos</w>
l ine</w>
r ules</w>
au tor
tú </w>
basi s</w>
ex peri
fun cion
don de</w>
e fic
satis fac
port s</w>
as s
he alth</w>
h esión</w>
m is</w>
I s
tr ic
a to</w>
t un
y et</w>
lar g
es fuer
ent emente</w>
a vi
no log
o k</w>
úl timo</w>
d entro</w>
tor s</w>
ou gh</w>
mi li
cle ar
económi ca</w>
st er
hi gh
ab or
ver dad</w>
er on</w>
especi almente</w>
b ase</w>
ou </w>
serv ices</w>
es cri
L </w>
pro t
b al
hab r
br es</w>
n am
ev alu
sel ves</w>
wel come</w>
v an</w>
pap el</w>
an is
algun as</w>
op </w>
aten ción</w>
av ía</w>
w a
ex p
c ar</w>
enc es</w>
eur o</w>
glob al</w>
lab or
t on
ca us
gr at
g en</w>
fol low
man i
ch ar
ma ñ
uc le
su m
intern acional</w>
re fi
hap pen
as unto</w>
adop ted</w>
ig n</w>
d ado</w>
v ari
st en
legisl ation</w>
ti l</w>
egi a</w>
teri or</w>
ven tion</w>
z ación</w>
enci on
j os</w>
no thing</w>
&apos; d</w>
mañ ana</w>
produc tos</w>
er ci
ti </w>
tod avía</w>
contin ue</w>
duci r</w>
indi vid
i o</w>
secon d</w>
Go bierno</w>
presu puesto</w>
su f
ci miento</w>
gun do</w>
& #
pregun ta</w>
&# 9
sh all</w>
M in
vot ación</w>
se gundo</w>
be half</w>
pro por
w ri
im os</w>
h acia</w>
fu era</w>
tr uc
cu anto</w>
dipu tados</w>
gr and
adec u
ta king</w>
din ero</w>
n ucle
opini on</w>
at ten
so l
A f
n er</w>
nuev a</w>
fr amework</w>
sub ject</w>
af ec
enmi enda</w>
M on
in dic
f aci
ar tí
z ado</w>
ac to</w>
exc lu
o so</w>
gro up</w>
for ward</w>
m en</w>
mo di
consu mid
ra .</w>
ag o</w>
did n</w>
b or
legisl ación</w>
bus in
nuev os</w>
aliz ación</w>
po se</w>
progres s</w>
dur ing</w>
g esti
ev it
m í</w>
ón de</w>
v uel
ed es</w>
vot ed</w>
pre vi
ab l
qu ite</w>
ay ing</w>
cum pli
institu tions</w>
concer ned</w>
o v
mu er
con struc
id enti
i es</w>
d ly</w>
un d</w>
ex ten
min d</w>
ar é</w>
n e</w>
qu e
quer emos</w>
ex pec
p h
S ra.</w>
faci li
ó g
dem asi
fle xi
ar án</w>
obst ante</w>
an as</w>
exist e</w>
est ás</w>
G re
un as</w>
n ú
ha ving</w>
l s</w>
d en</w>
fin ally</w>
gui ente</w>
ar r
m al
ch ang
pri or
re li
gro w
h ora</w>
hi gh</w>
mi t</w>
to wards</w>
an ks</w>
o l</w>
pen di
St ate</w>
tiv as</w>
investig ación</w>
S í</w>
tic os</w>
resul t</w>
m encion
com par
necesit amos</w>
a z</w>
le ast</w>
man ag
hab lar</w>
r as</w>
C á
for tun
ear ch</w>
c alidad</w>
ch il
res puesta</w>
ful ly</w>
en cu
bi do</w>
ac ti
str i
e ach</w>
soli dar
k ers</w>
ast e</w>
c as</w>
regi onal</w>
st ate</w>
import antes</w>
com ing</w>
al im
ri es
mi ght</w>
abl emente</w>
fre ed
ar lo</w>
achi ev
recur sos</w>
appro ach</w>
institu ciones</w>
to t
cas a</w>
res ol
dis crimin
z os</w>
mi llion</w>
er ra</w>
guar ant
C o
po ten
clear ly</w>
competen cia</w>
es as</w>
di al</w>
buen a</w>
cer tain
p er</w>
R us
T h
E s</w>
ab ly</w>
bas ed</w>
compromi so</w>
fre e</w>
e z
and a</w>
nor m
t ación</w>
D </w>
b est</w>
ad re</w>
condi tions</w>
de al</w>
cier to</w>
b a</w>
J o
es sion</w>
es p
en sa</w>
tim es</w>
inno v
soli ci
j a</w>
k ind</w>
fic e</w>
com mun
h and</w>
pued a</w>
rec ord
in ver
enti al</w>
d res
Un idos</w>
int ent
curr ent</w>
hap p
i endo</w>
S ch
ci d
ra ther</w>
jur í
ur g
ad amente</w>
ar emos</w>
Qu i
grand es</w>
ativ es</w>
energ ía</w>
ord en</w>
direc tiva</w>
may oría</w>
Ch ina</w>
dif í
bec ome</w>
instr um
estab le
t ro
reas on</w>
es pec
opportun ity</w>
defin i
responsab ilidad</w>
consu l
re form
inclu ding</w>
seri ous</w>
hab l
m ero</w>
po bl
qui z
re alidad</w>
tr as
E n
res ources</w>
oportun idad</w>
ó r
B r
en e</w>
espe cial</w>
especi ally</w>
C ómo</w>
princi ple</w>
ple ase</w>
comun ic
estu di
poli ci
vol un
dud a</w>
ap pe
establi sh
dem o
preci s
ob vi
ci onal</w>
se qu
ro w</w>
v í
fe el</w>
under stand</w>
Presid ency</w>
hab ía</w>
mar a</w>
en a</w>
y s</w>
b un
proyec to</w>
import ance</w>
tur n</w>
speci fic</w>
r á
t am
D er
1 5</w>
sm all</w>
st er</w>
I r
trans porte</w>
tal k</w>
ar a</w>
en es</w>
et ary</w>
3 0</w>
r es</w>
on ed</w>
D E</w>
thir d</w>
c er</w>
every thing</w>
propos ed</w>
negoci aciones</w>
s an
acc ord
tu d</w>
artí culo</w>
en ing</w>
provi de</w>
vis to</w>
auth orities</w>
200 0</w>
5 0</w>
ne g
R eg
ad v
regul ation</w>
t ely</w>
sor ry</w>
M edi
th s</w>
di ce</w>
exc ep
en ough</w>
respon sibility</w>
di ci
E s
actu ally</w>
ad di
ant ed</w>
s ing
as egur
mi t
democr á
incre ase</w>
indus try</w>
pers pec
sh or
entr as</w>
cu al</w>
accoun t</w>
ori a</w>
m enti
civi l</w>
su puesto</w>
call ed</w>
luc ha</w>
ning ún</w>
Direc tiva</w>
ch a</w>
dre n</w>
fi el
trans port</w>
v as</w>
saf ety</w>
polici es</w>
it self</w>
fai rs</w>
m p
gre ater</w>
strateg y</w>
le y</w>
any thing</w>
ning una</w>
liber tad</w>
fe lici
me et
nú mero</w>
str eng
c ro
appro pri
al o
nuev as</w>
si ento</w>
ex per
u </w>
pers onal</w>
negoti ations</w>
ar nos</w>
br ing</w>
ac ab
h aci
autor idades</w>
is ed</w>
le ad
ter m</w>
con fi
en or
ust edes</w>
trav és</w>
qui ere</w>
chil dren</w>
i or</w>
é c
pl es</w>
effec tive</w>
vi si
y es</w>
environ mental</w>
polític o</w>
pe li
Y ou</w>
atten tion</w>
produc ts</w>
res earch</w>
inde ed</w>
n ess</w>
deci siones</w>
ativ os</w>
k es</w>
nucle ar</w>
difficul t</w>
di a</w>
m é
pl ac
e ad</w>
ali zar</w>
m ember</w>
m ento</w>
ti ci
extre m
mi entras</w>
ke ep</w>
el s</w>
ben ef
d ate</w>
estruc tur
1 2</w>
N or
qu esti
is t</w>
adi e</w>
cab o</w>
o do</w>
im plic
a way</w>
trabaj adores</w>
mis ma</w>
di ri
star t</w>
pi do</w>
der s</w>
reco g
fu ll</w>
Cá mara</w>
gi r
fal ta</w>
al low</w>
1 1</w>
C ar
e za</w>
P u
th ers</w>
ag es</w>
exp lo
el abor
demasi ado</w>
democr acy</w>
mo ve</w>
miembr o</w>
polític os</w>
s c
oc ur
sal ud</w>
po wer</w>
wor ds</w>
co st
pu est
gesti ón</w>
b on</w>
ar ound</w>
l and</w>
lo t</w>
g os</w>
ati on
tien es</w>
ch i
m ate</w>
can did
acc ess</w>
d ad
ou l
Reg lamento</w>
fer encia</w>
en o</w>
á r
freed om</w>
maj or</w>
si endo</w>
democr atic</w>
econom ía</w>
é g
con grat
Con stitu
o ld</w>
medi ante</w>
pes ar</w>
op en</w>
estab lec
resul tado</w>
ambi ente</w>
tr u
pue b
solu ción</w>
vot ado</w>
fo od</w>
sab er</w>
plaz o</w>
regi ones</w>
soci edad</w>
medi da</w>
rec ei
e ign</w>
govern ment</w>
ac o
únic o</w>
v ement</w>
Ho la</w>
ah í</w>
P ol
fon dos</w>
inv est
li ght</w>
mi dad</w>
estrat egia</w>
lar ge</w>
n adie</w>
st op</w>
gui en</w>
A g
democr acia</w>
U </w>
ess ential</w>
re com
emb re</w>
si gue</w>
procedi miento</w>
ad dres
K </w>
lar go</w>
ac ciones</w>
soci ety</w>
pas o</w>
comp ani
for ce</w>
S o
pa z</w>
com mit
inter ests</w>
t ary</w>
an n
D em
instr u
m ot
se x
pos ed</w>
mejor ar</w>
i er
ex ac
se ver
al though</w>
em i
inter és</w>
lin es</w>
per fec
señ al
st ep</w>
inde pend
cre di
ampli ación</w>
qu ality</w>
E x
d ou
poin ts</w>
reg ar
acc eso</w>
regi ons</w>
qued a</w>
achi eve</w>
implement ation</w>
bu en</w>
cre ación</w>
er en</w>
desarro ll
com es</w>
fic ation</w>
ic os</w>
consi der</w>
haci endo</w>
p os</w>
do cum
cul tural</w>
M </w>
tr as</w>
effor ts</w>
comer cio</w>
económi co</w>
posi tive</w>
europe as</w>
agr ad
econom y</w>
congrat ul
b an
plant e
A c
escri to</w>
thou ght</w>
col le
es enci
sub si
f y</w>
t ab
lo ve</w>
z as</w>
c al</w>
re mos</w>
sing le</w>
Wh at</w>
hom e</w>
P e
ong er</w>
vari ous</w>
e de</w>
aspec tos</w>
resul ta</w>
con oci
mo der
equi li
intern al</w>
consumid ores</w>
re pe
s a
at s</w>
re un
follow ing</w>
certain ly</w>
d ro
lo go</w>
rel aciones</w>
signific a</w>
hacer lo</w>
hom bre</w>
lu ego</w>
invol ved</w>
inici ativa</w>
re fu
ej erci
d om
loc al</w>
t exto</w>
eur os</w>
v ic
deci r
pr on
o ds</w>
p s</w>
ver dad
to tal</w>
environ ment</w>
vec es</w>
fi ght</w>
fic ar</w>
c are</w>
fr ica</w>
res er
d am
G </w>
d atos</w>
s ac
f el
Is ra
di j
b ast
e ts</w>
exam in
M ini
B el
C O
gr u
con duc
ch all
regi ón</w>
par tes</w>
au ment
eli min
se en</w>
pe ace</w>
niñ os</w>
hap s</w>
in t</w>
difí cil</w>
com mittee</w>
o sa</w>
As untos</w>
v ent
fund s</w>
al guien</w>
i ties</w>
c la
de li
so sten
d ías</w>
re f
form ul
se an</w>
deber íamos</w>
asi mismo</w>
soci ales</w>
pobl ación</w>
ur es</w>
sho w</w>
Go vern
ri ed</w>
ti on
cre ar</w>
cor respon
coleg as</w>
sist em
financi ación</w>
program as</w>
esfuer zos</w>
ab ord
per haps</w>
d é
t ades</w>
amend ment</w>
res tric
al tern
pl ay</w>
you n
p e</w>
Com un
tr adi
terri tori
acuer dos</w>
co sa</w>
al low
í co
b ajo</w>
V er
R i
mo vi
ap plic
n acional</w>
B ar
en larg
s pi
re qu
B u
competi tion</w>
G er
ex i
pres ión</w>
ur a</w>
segur o</w>
con sequ
d ri
regi on</w>
conc ep
i al</w>
questi ons</w>
K o
R om
proced ure</w>
r ati
wor kers</w>
S er
medi os</w>
alo gue</w>
inter est</w>
tom ar</w>
a pro
no che</w>
tr ue</w>
efec to</w>
sust ain
T ri
of ten</w>
th em
á logo</w>
e z</w>
concer ns</w>
af fec
b </w>
ur al</w>
es ses</w>
ai l
grow th</w>
bun al</w>
1 3</w>
pued an</w>
cre cimiento</w>
G r
cas os</w>
is m</w>
pi en
fiel d</w>
produc ción</w>
th anks</w>
un ci
ru p
p at
posi bilidad</w>
ne t</w>
tendr á</w>
de pend
or row</w>
fer ence</w>
pres ente</w>
m eses</w>
difer entes</w>
per man
dese o</w>
l ater
ef fici
♪ </w>
compani es</w>
pu er
tal king</w>
resul tados</w>
escu ch
prot eg
Min istr
tic le</w>
ed er
P or
er an</w>
f arm
le a</w>
igu al</w>
in os</w>
t ext</w>
po st
le gi
ar me</w>
demo str
every one</w>
u h</w>
mi r
en ess</w>
tom orrow</w>
to ld</w>
sim ply</w>
inf lu
competi tiv
aw are</w>
ent er
le ft</w>
prác tica</w>
Govern ment</w>
mon ths</w>
agre ements</w>
inter eses</w>
fi g
con seguir</w>
enc our
mul ti
dem ás</w>
cu los</w>
solu tion</w>
fr ente</w>
deb ati
ni ght</w>
con for
im ag
dem on
rec ent</w>
igu al
h ol
cam ino</w>
Lis bon</w>
gru po</w>
job </w>
Di os</w>
po int
A mer
B ri
sab emos</w>
S u
li bre</w>
refi ere</w>
sab es</w>
alg una</w>
t an
re form</w>
di jo</w>
espec ífic
emp ha
un til</w>
meet ing</w>
ec er</w>
deci sions</w>
F on
Lis bo
st u
ic k
di álogo</w>
dest in
principi os</w>
est er
f ound</w>
le ave</w>
all í</w>
w anted</w>
teri ores</w>
E l</w>
qu ía</w>
accep t</w>
g in</w>
Lisbo a</w>
program mes</w>
w r
presu puest
produc tion</w>
ll ed</w>
últim os</w>
Af fairs</w>
ad ic
acer ca</w>
o thers</w>
ge ts</w>
at ori
maj ority</w>
initi ative</w>
up s</w>
- -</w>
stand ards</w>
youn g</w>
de leg
subsi di
val u
objec tives</w>
EU R</w>
fav or
rel acion
n ame</w>
ag enda</w>
tot almente</w>
diver si
b el
mitt ed</w>
man o</w>
jurí di
pre ten
sub st
D e</w>
busin ess</w>
ic k</w>
alis ation</w>
posi ciones</w>
2 5</w>
industri a</w>
ris k</w>
cri teri
con junto</w>
H u
palab ras</w>
seg ún</w>
jec ts</w>
concer n</w>
i ble</w>
extrem ely</w>
xi to</w>
é xito</w>
li ve</w>
respon sible</w>
fac e</w>
f l
sufici ente</w>
Tur key</w>
A C
s ent
Comis aria</w>
agricul tural</w>
p a</w>
tien do</w>
man os</w>
rel ations</w>
propor cion
dis pon
est ed</w>
vi sion</w>
ne i
need ed</w>
ten ga</w>
as oci
am in
di alogue</w>
un fortun
commun ic
ar gu
p untos</w>
appropri ate</w>
cre ate</w>
ejerci cio</w>
u su
s aying</w>
und a</w>
con oc
in fr
bu il
hor as</w>
í s
P al
sup port
mon it
t ér
gro ups</w>
di stri
em er
comunic ación</w>
ad ap
y an</w>
energ é
it os</w>
J us
Tur quía</w>
ma kes</w>
establec er</w>
des p
e an</w>
menti oned</w>
f uc
es c
t on</w>
p ed</w>
n on</w>
si mi
j un
cru cial</w>
deber ían</w>
com isión</w>
Ru sia</w>
ad hesión</w>
as ed</w>
públic o</w>
ex pl
tér min
wa it</w>
human it
públic a</w>
éc nic
inc or
our s</w>
individ ual</w>
de l
u eb
uni ver
co her
O r
pro hi
in migr
as s</w>
co ll
may be</w>
tar de</w>
inter ior</w>
cuer do</w>
C our
ex plic
p ay</w>
mun dial</w>
me et</w>
el ess</w>
peri od</w>
enlarg ement</w>
sab e</w>
re forma</w>
Rus sia</w>
fa ir</w>
t écnic
ail able</w>
av es</w>
e es</w>
on ia</w>
e ful</w>
T he</w>
á fic
concer ning</w>
job s</w>
mo tivo</w>
c ha
bi g</w>
a im
so on</w>
t in
spe cial</w>
av ailable</w>
distri bu
per í
el las</w>
O f
empe ñ
encu entr
200 7</w>
ho ld</w>
cont ext</w>
po w
man tener</w>
lleg ar</w>
agr íco
re for
curr ently</w>
propi a</w>
wri ting</w>
l ack</w>
o log
con segu
st ates</w>
mom ent</w>
oul d
anci as</w>
rec ha
h ard</w>
develop ing</w>
respe to</w>
l onger</w>
actu almente</w>
resul ts</w>
apoy ar</w>
b an</w>
ca si</w>
evit ar</w>
loo king</w>
reli gi
form ación</w>
en fer
f ocu
recog ni
st ly</w>
M i
únic a</w>
ould n</w>
ac cid
sim pli
w ing</w>
objec tive</w>
op en
tr ying</w>
capaci dad</w>
t ation</w>
ac tions</w>
di r
exist en</w>
lí ne
str u
Tri bunal</w>
ori gin
le d
encontr ar</w>
M a
pre c
F in
pas t</w>
lar es</w>
h ing</w>
B </w>
inter es
wr ong</w>
ent as</w>
se par
Cour t</w>
fundam entales</w>
po l
impro ve</w>
cli mate</w>
tern al</w>
amb lea</w>
happen ed</w>
pr ueb
en fo
par liam
F </w>
to ok</w>
d ata</w>
tam poco</w>
f om
consum ers</w>
c ent
ad el
Am end
ter as</w>
fi cial</w>
contr ario</w>
av an
educ ation</w>
l ent</w>
g er
them selves</w>
spe ak</w>
ex tr
acti vi
vi vi
adop tar</w>
hear d</w>
cas es</w>
imp act</w>
re ly</w>
us tri
is h</w>
I ra
mani f
dej ar</w>
i se</w>
bi a</w>
t ex
qui en</w>
sem ana</w>
S ec
syst ems</w>
li st
m ur
cont exto</w>
t ada</w>
o t</w>
P ri
el em
ve h
w led
con st
medi o
po pul
fi ve</w>
Ar ticle</w>
a th</w>
G od</w>
ci li
ic as</w>
activ idades</w>
p ing</w>
sistem as</w>
do cu
tr ain
pregun tas</w>
ou th</w>
clar amente</w>
as ked</w>
L a</w>
ori ent
os os</w>
en fr
t á
di men
deb ates</w>
ten ía</w>
proyec tos</w>
manag ement</w>
200 1</w>
am en
fami ly</w>
qui era</w>
C entr
seri e</w>
ch ec
he ar</w>
A u
am ong</w>
E C
G ener
zon a</w>
mat ters</w>
qui én</w>
hu bi
w ar
str ong</w>
comm end
m y
N aciones</w>
m embers</w>
de bido</w>
vi g
de al
an u
di go</w>
G u
re ach
igual dad</w>
el o</w>
ries go</w>
nu mer
re member</w>
200 6</w>
Isra el</w>
Ko so
am oun
ari an</w>
As amblea</w>
propi o</w>
gr up
som os</w>
últim a</w>
Br us
di </w>
V </w>
er te</w>
du e</w>
ap pli
t y
ac ro
utili z
emer g
d ang
dest ac
es ca
d ónde</w>
aci o</w>
g amos</w>
di ficul
at ory</w>
ab ri
d ays</w>
ans wer</w>
e f</w>
se e
se ems</w>
grup os</w>
E con
T O</w>
atr o</w>
clo se</w>
re lev
su gg
Of fice</w>
inc o</w>
reas ons</w>
consecu encias</w>
tran si
secon dly</w>
án do
as es
Centr al</w>
as es</w>
logr ar</w>
enfo que</w>
Ira q
t ou
abo ve</w>
tor y</w>
im migr
cr í
S oci
con sci
seg unda</w>
rá p
fr au
ap </w>
accep table</w>
constitu ye</w>
ac es</w>
tu al</w>
dou b
regar ding</w>
cer r
B er
200 4</w>
vi a</w>
d am</w>
v ital</w>
tic s</w>
jec u
consider o</w>
ent ar</w>
trabaj ar</w>
w ater</w>
unfortun ately</w>
efic az</w>
ol vid
integr ación</w>
requi re
cap ital</w>
b ab
C or
le ad</w>
cion ales</w>
des empeñ
pa y
sen se</w>
en di
natur al</w>
vol ver</w>
bast ante</w>
present ado</w>
T i
os as</w>
pe ti
N e
sec re
comer ci
c ause</w>
Koso vo</w>
L u
pas a</w>
o z
est é</w>
t adas</w>
n ers</w>
aprob ación</w>
esper a</w>
ven ir</w>
fir stly</w>
re ports</w>
Un idas</w>
s k
w on</w>
Señ ora</w>
co labor
conc entr
c tim
co sts</w>
respec ta</w>
L e
re ducir</w>
esca la</w>
pued es</w>
as sist
fis her
financi era</w>
m al</w>
princi ples</w>
bi r</w>
er se</w>
res t</w>
F or
ví ctim
recom end
f á
inter pre
fr u
199 9</w>
el se</w>
prim ero</w>
ta x</w>
of rec
f our</w>
estr a</w>
we ek</w>
qu es</w>
J u
necesit a</w>
ar te</w>
R o
parti es</w>
signific ant</w>
c ame</w>
compromi se</w>
perí odo</w>
au mento</w>
incor por
t ali
centr al</w>
í o</w>
ayud ar</w>
recon oci
r o</w>
end s</w>
medio ambi
anc ed</w>
sim pl
gu erra</w>
1 ;</w>
&#9 1;</w>
c in
Ch ri
ar es</w>
as untos</w>
h ouse</w>
h esi
reg ards</w>
pedi r</w>
v ay
b ad</w>
w ar</w>
re commend
palab ra</w>
transpar encia</w>
in si
b lo
chang es</w>
á si
jo int</w>
d oc
pri ority</w>
pro jects</w>
D ec
hab it
fund ing</w>
sever al</w>
elec ciones</w>
com i
ei ther</w>
muj er</w>
abili dad</w>
alg ún</w>
ic an</w>
e jecu
excel lent</w>
&#9 3
&#93 ;</w>
g er</w>
per mí
# </w>
bal ance</w>
princip al</w>
v in
200 2</w>
c inco</w>
merc ados</w>
su s
activi ties</w>
200 9</w>
inter vención</w>
mo de
esenci al</w>
us ing</w>
it a</w>
con nec
ta x
ro ad</w>
achiev ed</w>
fin e</w>
bier nos</w>
y en</w>
pueb lo</w>
Inter net</w>
cu atro</w>
com pañ
av o
G e
sustain able</w>
intern acionales</w>
stand ing</w>
man ten
excel ente</w>
a im</w>
de ta
Comun idad</w>
th eless</w>
ge tting</w>
lam ente</w>
v ac
agre ed</w>
Por tu
l le
g l
di r</w>
hom bres</w>
ju di
consecu encia</w>
estable ci
we e
commit ment</w>
particip ación</w>
consi guiente</w>
g ri
re d
confi anza</w>
th us</w>
govern ments</w>
i ght</w>
tech nic
Dem ocr
ab ier
ec en</w>
Medi terr
si r</w>
F R</w>
medi a</w>
m ec
inform es</w>
estab ilidad</w>
legisl ative</w>
precis amente</w>
si v
dra ft</w>
- y</w>
demon str
aqu ellos</w>
llev ar</w>
congratul ate</w>
le ar
c ed</w>
Gener al</w>
o d
seri o</w>
provid ed</w>
si z
sen si
integr ation</w>
a su
b order</w>
val ores</w>
reun ión</w>
val or</w>
dra w</w>
reduc ción</w>
ll ing</w>
sh are</w>
M r.</w>
effec t</w>
promo te</w>
shor t</w>
zon as</w>
a za</w>
200 5</w>
é ste</w>
up on</w>
ide as</w>
mark ets</w>
declar ación</w>
obje to</w>
con sen
L o</w>
lab our</w>
re main</w>
200 3</w>
200 8</w>
ec h</w>
ar ri
ne t
D es
b aj
rou ght</w>
prev ent</w>
mo str
ven es</w>
so lamente</w>
ay er</w>
Con vention</w>
ab and
is ation</w>
some one</w>
aspec to</w>
l la</w>
ac tive</w>
l er
a ke</w>
D u
w at
simpl emente</w>
s po
im e</w>
parti r</w>
u do</w>
solidar ity</w>
tec nolog
cu id
Pal est
ass ess
re main
20 10</w>
des cri
com pens
er da</w>
th y</w>
au di
criteri os</w>
en vi
re fle
tiv ely</w>
guarant ee</w>
con ven
mi r</w>
su pon
j ó
terror ism</w>
for eign</w>
sal v
4 0</w>
qui eres</w>
habr ía</w>
Iraq </w>
wor ks</w>
M e</w>
I tali
ad u
f lo
ir á</w>
quer ía</w>
in medi
conf id
al to</w>
serv ice</w>
par lament
suf fici
g ast
hesi on</w>
co ver
inclu de</w>
deb o</w>
jó venes</w>
bi r
pro ject</w>
me th
men s
alcan zar</w>
al one</w>
ex ig
rel ativa</w>
confor midad</w>
tu s</w>
o í
mor ning</w>
i to</w>
ai r
transpar ency</w>
neces aria</w>
gu en</w>
comunit ario</w>
adel ante</w>
hel d</w>
clar a</w>
benef it</w>
educ ación</w>
reg istr
hist oria</w>
á mb
prac tice</w>
cir c
s inc
terror ismo</w>
gr o</w>
my self</w>
á li
val e</w>
a port
dis posiciones</w>
acc ession</w>
ou ght</w>
im pres
agu es</w>
hi zo</w>
or as</w>
di es</w>
consum er</w>
e ed</w>
al most</w>
aspec ts</w>
cambi os</w>
dist in
al y
g etary</w>
protec t</w>
ámb itos</w>
inst ead</w>
p adre</w>
fri end</w>
rel ation</w>
organiz aciones</w>
s on
r est
respon se</w>
vot ing</w>
rec or
it ing</w>
e do</w>
ag ue</w>
acep tar</w>
solidar idad</w>
fr anc
procedi mientos</w>
V i
popul ation</w>
modi fic
em is
st ud
Ri ghts</w>
ch es</w>
re n</w>
realiz ado</w>
M E
pi r
ing ly</w>
evalu ación</w>
T e</w>
b ási
accord ing</w>
1 4</w>
jus to</w>
tiv amente</w>
mi ra</w>
Ge or
or ing</w>
quiz ás</w>
o w</w>
t ent</w>
ter ia</w>
ap ply</w>
Ch ar
am a</w>
our selves</w>
l en
m er</w>
apro v
Li ber
s cho
di o</w>
colle agues</w>
fron teras</w>
b rought</w>
p ic
be h
ex terior</w>
im en</w>
b er</w>
st age</w>
vi ene</w>
sosten ible</w>
ti tu
happ y</w>
l au
a king</w>
gu y</w>
si guiente</w>
pes ca</w>
tic amente</w>
l óg
ég imen</w>
c k</w>
contribu tion</w>
princip ales</w>
úblic a</w>
mí n
m ess
con serv
t ando</w>
aplic ar</w>
addi tion</w>
reduc e</w>
beh ind</w>
iz ación</w>
p ack
f f</w>
out side</w>
ple ased</w>
consider able</w>
id amente</w>
n or</w>
discus sion</w>
sub ra
permi tir
términ os</w>
natur e</w>
r égimen</w>
technic al</w>
v arios</w>
má xim
instrum entos</w>
communic ation</w>
tr ó
é sta</w>
on able</w>
mili tary</w>
plen amente</w>
raz ones</w>
b a
preci os</w>
viol ence</w>
pro duci
ol óg
al ong</w>
tech nolog
valu es</w>
ayud as</w>
P l
bi en
k er</w>
mis mos</w>
po ver
equili bri
ap h
coleg a</w>
invest ment</w>
satisfac ción</w>
har mon
C E</w>
sim ple</w>
ac ts</w>
qui enes</w>
r adi
volun tad</w>
agu a</w>
com en
viol encia</w>
á l</w>
anc ing</w>
exist ing</w>
Qui én</w>
wled ge</w>
ner ship</w>
om s</w>
as h
ent ary</w>
to ler
t as
o w
refer encia</w>
cost es</w>
ar mon
desp ite</w>
elec tions</w>
financi eros</w>
o od</w>
con tain
present ar</w>
anim ales</w>
H e
li sta</w>
inde pendi
Direc tive</w>
compro mis
ti cia</w>
e la</w>
consi st
habl ando</w>
ex port
I I</w>
ñ o</w>
proteg er</w>
ocur ri
s ch
succ ess</w>
inc ap
train ing</w>
Mini ster</w>
cli má
stat ement</w>
fon do</w>
d ol
at ors</w>
dic os</w>
poten ti
tr af
b on
i miento</w>
ter cer
individ u
posi tivo</w>
pron to</w>
au tom
instrum ento</w>
com ent
on ales</w>
es n</w>
im medi
r ural</w>
happ en</w>
succ ess
industri al</w>
ju i
m ech
cri teria</w>
ci as</w>
an co</w>
ha ga</w>
enci ones</w>
list en</w>
w ants</w>
res pal
deci ded</w>
reg re
clo sed</w>
j ud
co hesión</w>
pañ a</w>
provi sions</w>
aprov ech
si x</w>
adv ant
tr ag
a ir</w>
proced ures</w>
person a</w>
pu b
g s</w>
ed a</w>
m ag
st ability</w>
ten iendo</w>
to co
acro ss</w>
de ath</w>
F und
alim ent
W or
sec tores</w>
ref lec
a firm
1 8</w>
pover ty</w>
fis hing</w>
do esn</w>
I t</w>
luc h
pro per
E n</w>
Jo h
ru le</w>
quiz á</w>
á ne
en s
enfr ent
s ays</w>
re pres
equ al</w>
increas ing</w>
est at
r un</w>
assist ance</w>
li ving</w>
car ried</w>
de ten
inci d
é re
lan gu
preci so</w>
par ty</w>
ad ing</w>
preocup ación</w>
wor d</w>
co st</w>
Der echo</w>
enc ar
qu ick
att emp
br o</w>
expres s</w>
farm ers</w>
li e</w>
H </w>
comunit aria</w>
cre ation</w>
ter a</w>
b ac
ali sta</w>
B i
dich a</w>
judi cial</w>
víctim as</w>
re cu
el as</w>
po bre
gi ving</w>
can ti
asi st
O c
D ónde</w>
basi c</w>
P E</w>
pequeñ as</w>
habr á</w>
M al
m adre</w>
m ar</w>
Amend ment</w>
absolu tely</w>
ap pl
regul ations</w>
recon oc
co hesion</w>
mater i
Der echos</w>
ter cer</w>
ro om</w>
poli ce</w>
tercer os</w>
inici ativas</w>
des ig
gu ys</w>
st ay</w>
wi t
pro mot
pobre za</w>
l ater</w>
consequ ences</w>
our able</w>
chall eng
direc ción</w>
ul g
men tion</w>
oc asi
pl ement</w>
B al
go es</w>
jus tice</w>
thin king</w>
ar la</w>
pre fer
con den
man d
l er</w>
justi cia</w>
requ est</w>
gr ave</w>
fin almente</w>
val ue</w>
ant ly</w>
us tr
increas ed</w>
ag ed</w>
dem u
l ad
muer te</w>
n y</w>
ex tra
alis t</w>
any one</w>
later al</w>
us os</w>
s esión</w>
prob ably</w>
b our
anim al</w>
ent ífic
prac tic
áfic o</w>
ed ly</w>
throu gh
empha si
t ales</w>
ami go</w>
mech anis
s m</w>
cur so</w>
reg lamento</w>
actu ar</w>
eci miento</w>
D e
pro voc
re alizar</w>
tab led</w>
addres s</w>
im pul
j untos</w>
C hi
con firm
adop t</w>
lí mi
P ap
vo lu
tem as</w>
ad ver
económi cas</w>
def ensa</w>
famili a</w>
li st</w>
est ing</w>
Con ferencia</w>
pod amos</w>
prof es
nic o</w>
experi ence</w>
through out</w>
re vi
cri me</w>
ad mi
g ot
v al</w>
he ad</w>
J un
ant a</w>
el ev
hac en</w>
enci es</w>
re visión</w>
ó cr
cumpli r</w>
priv ate</w>
pres sure</w>
con jun
prof esi
dis ast
kno wn</w>
cont amin
pas ar</w>
efec tos</w>
con soli
en sur
re quisi
anti gu
on a</w>
men udo</w>
fol low</w>
al egr
enc h</w>
on ar</w>
wh at
applic ation</w>
qui eren</w>
comple tely</w>
w on
fun c
compro me
prior idad</w>
M u
próxim o</w>
al e</w>
an aly
pro pone</w>
d ru
e as
car ác
cir cul
carác ter</w>
all á</w>
I N
organis ations</w>
económi cos</w>
lleg ado</w>
prepar ed</w>
fuer za</w>
develop </w>
fuer te</w>
dificul tades</w>
sel s</w>
su pone</w>
produc e</w>
requi red</w>
servi cio</w>
t ó</w>
i di
O M
a sión</w>
ig nor
tak es</w>
lam entos</w>
mej ora</w>
fi j
com munity</w>
sa w</w>
enfer me
gr an
B arro
natur almente</w>
cr é
se p
ci ty</w>
ha yan</w>
pu di
res u
tem por
esp acio</w>
nam ely</w>
Ministr o</w>
S egur
circ un
present ed</w>
Pro gram
líne a</w>
ci entífic
doub t</w>
e ti
at as</w>
streng th
est ad
quick ly</w>
require ments</w>
H e</w>
wi se</w>
pl om
record ar</w>
A L
pr en
r ic
ten gan</w>
des graci
institu tional</w>
h and
permi tir</w>
instru ments</w>
Re ino</w>
rel ating</w>
pur su
direc t</w>
posi bili
prior idades</w>
com pli
vot ar</w>
read ing</w>
C ro
pien so</w>
rec ently</w>
b ed</w>
gro und</w>
mis sion</w>
U N</w>
recu per
A gr
fis cal</w>
amoun t</w>
propi os</w>
exac tly</w>
cu t</w>
ad equ
w aste</w>
r ate</w>
opportun ities</w>
it é</w>
fuer on</w>
gen u
tom a</w>
cer ca</w>
C i
expres ar</w>
sh ar
simi lar</w>
si quiera</w>
esper ar</w>
it em</w>
dem and</w>
w ent</w>
fa ther</w>
l ate</w>
se is</w>
fur ther
si l
O N
nei gh
ster dam</w>
ac on
lo st</w>
appe ar
tur es</w>
A ustri
k a</w>
20 20</w>
ar mas</w>
inmigr ación</w>
U S</w>
is h
cat eg
au t
h ur
il legal</w>
de fici
ren e
ed er</w>
gar ant
terr ori
fel low</w>
lab or</w>
per son</w>
li ves</w>
reach ed</w>
pow ers</w>
pri orities</w>
wh ose</w>
v ul
º </w>
1 6</w>
vic tim
you r
gh tly</w>
buen as</w>
represent a</w>
abord ar</w>
initi atives</w>
conflic t</w>
mar cha</w>
D ev
ti sh</w>
acep table</w>
mín im
as soci
eng en</w>
H un
neces arias</w>
s per
a ver
agricul tura</w>
point ed</w>
potenti al</w>
ra ised</w>
A cuerdo</w>
s able</w>
sci enti
bud getary</w>
g al</w>
mo vement</w>
Sch engen</w>
aument ar</w>
ad ora</w>
ren ov
hubi era</w>
neces idades</w>
is n</w>
previ ous</w>
establi sh</w>
me t</w>
comp lic
M or
pro pon
vig or</w>
equilibri o</w>
no te</w>
Fr ench</w>
a ére
ep s</w>
further more</w>
reform as</w>
O ri
dij e</w>
2 7</w>
mens aje</w>
focu s</w>
t ask</w>
de ad</w>
peli gro</w>
P L</w>
apar tado</w>
ab an</w>
hi jo</w>
C ol
cu án
S ab
be gin
Fon do</w>
k en</w>
oportun idades</w>
felici tar</w>
victim s</w>
señal ar</w>
respon der</w>
* </w>
agríco la</w>
c ally</w>
tr im
esper amos</w>
direc tion</w>
alim entos</w>
Am sterdam</w>
podr ían</w>
pr est
Uni do</w>
re ach</w>
en as</w>
á b
expec t</w>
pack age</w>
1 00</w>
ex ternal</w>
vi gi
nic e</w>
coll ec
mo ther</w>
buil ding</w>
di e</w>
establish ed</w>
ali fic
est re
p un
of fer</w>
coordin ación</w>
car a</w>
fron teri
some times</w>
ve o</w>
of fer
climá tico</w>
P er
B ulg
ne ver
ap la
Ir l
bec om
effor t</w>
gu sta</w>
agr adec
resol ver</w>
ki ll</w>
t ari
mi go</w>
ch ance</w>
ac aba</w>
cri tici
an nu
monit oring</w>
promo ver</w>
for get</w>
cap it
vo to</w>
evid ente</w>
Or gan
Fr ance</w>
A frica</w>
rel and</w>
lev els</w>
ar le</w>
w as
pu lar</w>
pr ice</w>
I T</w>
I reland</w>
dre mos</w>
. 000</w>
challeng es</w>
tr ust</w>
obvi ously</w>
in spec
instru ment</w>
respon sable</w>
pens ar</w>
docum ento</w>
o -</w>
rel ativo</w>
st e
re ality</w>
Irl anda</w>
c op
trat ar</w>
b it</w>
pl ay
mi sión</w>
B o
expres sed</w>
E E
bi llion</w>
implement ed</w>
en able</w>
bi o
si gui
comun idad</w>
der i
ester day</w>
e ed
re view</w>
1 7</w>
r ía</w>
v ali
j ust
spe ak
part ners</w>
immigr ation</w>
R ep
su fri
ex cu
cor rup
b o</w>
ir se</w>
esti m
asegur ar</w>
di plom
r á</w>
conclu sion</w>
Portu gal</w>
y esterday</w>
er amente</w>
E ast</w>
jurídi co</w>
emi siones</w>
b om
B ud
deci de</w>
fec ha</w>
financi ero</w>
never theless</w>
s ent</w>
M c
tre at
di ez</w>
S p
cu encia</w>
um bre</w>
g one</w>
energé tica</w>
lo gi
l and
z ando</w>
Par ty</w>
con migo</w>
si tting</w>
rel ativas</w>
str ess</w>
esfuer zo</w>
So cial</w>
comb in
effec ts</w>
prác ticas</w>
gir l</w>
S i
c ou
peli gro
re mo
financi eras</w>
anis h</w>
mode lo</w>
que te</w>
h en
mi l
H ar
d le</w>
experi encia</w>
r ing</w>
vent aj
l at
mess age</w>
inclu ded</w>
actu ales</w>
crimin al</w>
a -</w>
activ idad</w>
fisher ies</w>
A h</w>
recei ved</w>
conv inc
desarroll ar</w>
ge o
caus a</w>
sab en</w>
bor ders</w>
conv enci
concre to</w>
discrimin ation</w>
cro ss</w>
di g
g as
sh ed</w>
utili zar</w>
F und</w>
ch e
permi te</w>
a de</w>
8 0</w>
uc r
re turn</w>
m pi
mo tivos</w>
agricul ture</w>
eas y</w>
polic ía</w>
tan me</w>
mo tion</w>
e over</w>
s ely</w>
origin al</w>
í n
ori gen</w>
cré di
competitiv idad</w>
Rep ública</w>
inv it
fun ción</w>
cl ari
am á</w>
support ed</w>
be gin</w>
res to</w>
ar les</w>
enor m
tar ea</w>
vi er
des er
presid ente</w>
estr ic
m as
cir cum
fir m</w>
de pen
í si
e te</w>
compr en
di se
conven i
Bri tish</w>
mej ores</w>
bili ties</w>
6 0</w>
im plement</w>
in as</w>
cre emos</w>
ni vel
P PE</w>
on d</w>
diri g
ac ord
min ist
po dido</w>
presid ency</w>
Bel ar
pa quete</w>
wi de</w>
hear t</w>
enter pri
subra y
civi li
cu st
char ge</w>
sem anas</w>
C re
suffici ent</w>
permí tanme</w>
v arias</w>
re ad</w>
ist e</w>
bri tá
re duci
relev ant</w>
medi um</w>
s al</w>
sex ual</w>
pa id</w>
elec tor
min im
mencion ado</w>
v enciones</w>
M er
sec tors</w>
lec tura</w>
g ado</w>
e ta</w>
e th
go bierno</w>
compromis os</w>
comerci ales</w>
oper ation</w>
is ing</w>
alis ed</w>
si an</w>
S E</w>
mí o</w>
pu estas</w>
norm al</w>
Barro so</w>
si bilities</w>
treat ment</w>
suf fer
busin esses</w>
form as</w>
á tica</w>
san it
reduc tion</w>
R es
un employment</w>
llev a</w>
li sh</w>
ber nam
pr ices</w>
import a</w>
estructur as</w>
po or</w>
ad s</w>
comun es</w>
confid ence</w>
c ado</w>
f ab
ag ing</w>
vul ner
reg res
movi li
mi les</w>
wee ks</w>
si guen</w>
posibili dades</w>
discus s</w>
mo del</w>
pos sibility</w>
AC P</w>
asist encia</w>
reform s</w>
p ó
agricul tores</w>
develop ed</w>
á re
ti ous</w>
mor eover</w>
lu m</w>
par agr
oc asión</w>
declar aciones</w>
fá cil</w>
Fr ancia</w>
nivel es</w>
hi ci
your self</w>
gu bernam
y endo</w>
chi ld</w>
tr áfico</w>
pen a</w>
funcion amiento</w>
sal ir</w>
ases in
d an</w>
car ry</w>
di ó</w>
go l
Tr ans
inver sión</w>
ev olu
addi tional</w>
asoci ación</w>
len gu
Con ference</w>
pre cio</w>
au to
refor zar</w>
pro per</w>
re it
em e</w>
o g
cre ating</w>
teri or
struc tural</w>
represent antes</w>
hu ge</w>
wom an</w>
or al</w>
nic a</w>
imp acto</w>
de dic
call s</w>
vin cul
emis sions</w>
hist ory</w>
W e</w>
ad d</w>
deta il
In dia</w>
k id
el op
Dec ember</w>
may ores</w>
ev ents</w>
Segur idad</w>
vi l</w>
cla ve</w>
seri ously</w>
ex tent</w>
discus sed</w>
consider ed</w>
Pol í
ur </w>
Bulg aria</w>
B ro
encour age</w>
an ean</w>
ju ego</w>
st re
A li
le jos</w>
er ship</w>
thou s
ri g
ear ly</w>
remain s</w>
g ave</w>
parliam entary</w>
jui cio</w>
coordin ation</w>
neces ito</w>
1 .
connec tion</w>
s to</w>
pre hen
cam po</w>
allow ed</w>
spe aking</w>
for tal
discrimin ación</w>
P r
añ ad
ther n</w>
of re
H er
prohi bi
cab e</w>
Est ás</w>
represent atives</w>
w ed</w>
inten ción</w>
Est á</w>
adecu ada</w>
appli ed</w>
empe zar</w>
or e</w>
Mediterr anean</w>
cu ar
Dev elop
tar se</w>
pres er
rel ation
ac tos</w>
ch ed</w>
k y</w>
ensur ing</w>
ki lled</w>
competen cias</w>
M un
re gu
t ack
T H
dici embre</w>
únic amente</w>
1 0
cambi ar</w>
call ing</w>
appro ved</w>
r aci
tu vi
próxim a</w>
ser án</w>
efic acia</w>
ti go</w>
ap h</w>
colabor ación</w>
ob tener</w>
begin ning</w>
z ada</w>
tel e
sen d</w>
f eder
Develop ment</w>
conflic to</w>
ar ti
prob ablemente</w>
avo id</w>
con stru
docu ment</w>
le o</w>
M ic
scho ol</w>
di da</w>
prac tical</w>
dis par
s enci
discus sions</w>
M E</w>
mom entos</w>
fin ancing</w>
resid u
p ati
comp any</w>
necesit an</w>
dic t
pa in</w>
du ty</w>
M ac
lo v
sh it</w>
enor me</w>
direc tly</w>
kno wledge</w>
gre at
comple te</w>
inf ra
encuentr a</w>
re jec
p tion</w>
gu ide
sig n
what ever</w>
h ell</w>
extra ordin
annu al</w>
as y
estruc tura</w>
competitiv eness</w>
fri ends</w>
er lo</w>
solu ciones</w>
adop ción</w>
ami gos</w>
capaci ty</w>
Agr icul
Re public</w>
err or</w>
plan es</w>
enti re</w>
N ations</w>
circum st
F is
at or</w>
circun st
refu gi
w al
str ic
ci fr
un acceptable</w>
199 8</w>
asi gn
m ari
p aci
Par tido</w>
áli sis</w>
assess ment</w>
f all
candid atos</w>
kno ws</w>
ah ead</w>
al em
speci fic
si va</w>
pro me
as king</w>
contribu ción</w>
P a
Polí tica</w>
mar k</w>
gi do</w>
re vis
con tenido</w>
re tir
exper im
absolu tamente</w>
2 4</w>
ándo se</w>
ari ly</w>
ali stas</w>
h ours</w>
streng then</w>
em o
en ge</w>
ho sp
precis ely</w>
cul tura</w>
re per
ast er
gr aph
perspec tiva</w>
ing res
go ods</w>
ist án</w>
d or
N i
affec ted</w>
gu st
be y
Des arro
muc ha</w>
A N</w>
organiz ación</w>
am er
form s</w>
gi a</w>
e asi
cu ales</w>
ist an</w>
i ll
r un
Desarro llo</w>
adop tion</w>
an terior</w>
re tras
p re</w>
Wor ld</w>
l ast
vay a</w>
g es</w>
pi de</w>
Jun e</w>
labor al</w>
ev a</w>
propu esto</w>
dis posición</w>
H ello</w>
equi voc
comb ati
ec u
gh ted</w>
A gre
contribu ir</w>
spe ech</w>
effici ency</w>
cul ture</w>
solu tions</w>
lu z</w>
cre ated</w>
z ca</w>
direc tamente</w>
Constitu ción</w>
gr aves</w>
of fice</w>
tic ally</w>
li n</w>
der es</w>
sor t</w>
i re</w>
ocasi ones</w>
technolog y</w>
exac tamente</w>
saf e</w>
fuer zas</w>
C umbre</w>
al o</w>
z e</w>
ev es</w>
comp ati
chall enge</w>
reper cu
for ces</w>
P T</w>
sc ope</w>
di gn
ex </w>
podr á</w>
alis m</w>
com prehen
fac tor</w>
conclu siones</w>
construc ción</w>
ac om
bey ond</w>
com mitted</w>
p an
consider ar</w>
ac as
success ful</w>
stat us</w>
circul ación</w>
circumst ances</w>
pro sper
t ty</w>
effec tively</w>
fir ma</w>
consider a</w>
gast os</w>
equ ality</w>
guide lines</w>
sh own</w>
en tiendo</w>
pl ans</w>
A R
n º</w>
t amos</w>
C an
distin tos</w>
estrat ég
c ó
h un
jo in</w>
fer ro
hon ourable</w>
A lem
refer ence</w>
con cili
con dem
ofrec er</w>
contr adic
empres a</w>
me an
ci to</w>
elem entos</w>
rel ated</w>
introduc e</w>
sum mit</w>
públic os</w>
T ra
B ur
gul ation</w>
humanit arian</w>
B ank</w>
mi st
Po lic
as tr
as truc
o il</w>
el egi
cumpli miento</w>
adecu ado</w>
1 4
was n</w>
s ession</w>
sur pri
O ye</w>
aim ed</w>
st ers</w>
ep ing</w>
adequ ate</w>
ries gos</w>
Á frica</w>
ac ter
Jus ticia</w>
di endo</w>
ac o</w>
vie ws</w>
des apar
des truc
def ence</w>
tra to</w>
an álisis</w>
open ha
uni o</w>
al loc
justi fic
spi ri
vivi r</w>
infr astruc
min e</w>
innov ación</w>
C openha
benefici os</w>
om in
entr ar</w>
com mer
si onal</w>
neces arios</w>
contribu te</w>
bo y</w>
difficul ties</w>
ud a</w>
f oun
x emb
amb os</w>
wh er
ear li
terr eno</w>
ampli o</w>
st eps</w>
ten dremos</w>
demostr ado</w>
rá pido</w>
asy lum</w>
ti pos</w>
saf e
aprob ado</w>
1 2
h ands</w>
pur pose</w>
Ger many</w>
loc ales</w>
f ase</w>
re uni
au tori
f all</w>
part nership</w>
prueb a</w>
ez co</w>
as si
ty pe</w>
fi l
esi ones</w>
no vi
ri sh</w>
Palest ini
canti dad</w>
dr in
Democr ats</w>
v ía</w>
Con vención</w>
eci do</w>
c au
b ot
conver s
t aciones</w>
O K</w>
effici ent</w>
com pl
s av
aci as</w>
re mind</w>
19 </w>
V amos</w>
est én</w>
asi lo</w>
pon entes</w>
ap preci
a er
A d
innov ation</w>
in s</w>
responsab les</w>
luch ar</w>
vi aj
deal ing</w>
fundam ent
si to</w>
a la</w>
star ted</w>
o ce</w>
co ver</w>
per ten
Alem ania</w>
m em
bro ad
posi tiva</w>
institu cional</w>
bab y</w>
E ur
Amer ican</w>
trabaj ando</w>
over all</w>
minu tes</w>
impro ving</w>
residu os</w>
accep ted</w>
conclu sions</w>
we ap
er ous</w>
w an
próxim os</w>
Jus tice</w>
consider ation</w>
ter c
su erte</w>
reit er
administr ative</w>
én do
imag in
tu vo</w>
k new</w>
independ ent</w>
g ed</w>
expec t
ap ru
estructur ales</w>
E strat
enterpri ses</w>
provid ing</w>
specific ally</w>
sup ply</w>
m ac
D ef
ar reg
Pro c
c á
reco gn
produc tores</w>
t ate</w>
comb at</w>
com plement
cul p
se tting</w>
equili br
ejecu ción</w>
O b
com ments</w>
b ly</w>
provid es</w>
acon te
re des</w>
Cu án
com prob
K y
Ger man</w>
minim um</w>
ch o</w>
jurídi ca</w>
reconoci miento</w>
benef its</w>
ser ve</w>
oblig ación</w>
reg ime</w>
recei ve</w>
conclu sión</w>
trans port
end ing</w>
f lu
to p</w>
ner g
amer ic
y eah</w>
se em</w>
C y
b ol
b ack
m amá</w>
accord ance</w>
prec ed
B anco</w>
amen aza</w>
R E
S outh</w>
veh í
difer ente</w>
199 7</w>
acti tud</w>
dej a</w>
Chri sti
lan des
pro pose</w>
democrá tico</w>
al eza</w>
S e
ar ms</w>
Econ om
com place</w>
inten si
men es</w>
de tec
comple tamente</w>
ri ghtly</w>
anti </w>
v imos</w>
h am
Agre ement</w>
tt en</w>
ís ticas</w>
plac ed</w>
st ro
cont ent</w>
S e</w>
introduc ción</w>
ex erci
Inter national</w>
en señ
ven ido</w>
ú </w>
fron t</w>
ami entos</w>
I S</w>
ni a</w>
u se
consegu ido</w>
re ac
gi ves</w>
Medi o</w>
progres o</w>
ch ing</w>
c lu
si r
Estrat egia</w>
terri ble</w>
inclu ir</w>
sho ws</w>
colle ague</w>
tor no</w>
des empleo</w>
su ministr
pol lu
im puestos</w>
Brus sels</w>
dem and
avan zar</w>
minu te</w>
consu mo</w>
W TO</w>
mu tu
pres s</w>
urg ent</w>
siz ed</w>
ex ist</w>
ten d
llam ar</w>
em pl
posi bles</w>
sel ec
insi sti
dang erous</w>
prueb as</w>
comer cial</w>
cab eza</w>
implement ing</w>
e h</w>
mani fi
h y
í tim
U S
des cu
chang ed</w>
gr av
ér amos</w>
a ur
ll s</w>
In tern
regul ar</w>
hab la</w>
parti dos</w>
cho ice</w>
pro fund
k et</w>
m .</w>
st ated</w>
ac lar
wor ked</w>
univer si
S w
M an
M o
di vi
strateg ic</w>
tru th</w>
5 00</w>
requisi tos</w>
cam pa
legi tim
pi er
vigi l
clo sely</w>
ton ight</w>
concep to</w>
promot ing</w>
entr ada</w>
Brus elas</w>
stud y</w>
in ce</w>
dest ro
paragr aph</w>
I rish</w>
responsab ili
pres i
ber n
cont ar</w>
aster n</w>
D r.</w>
scienti fic</w>
ir a</w>
st oc
mo d
ol s</w>
cre ci
preten de</w>
bo dies</w>
es cap
particip ation</w>
territori o</w>
natur aleza</w>
pap á</w>
vol ver
s ound</w>
anim als</w>
conver tir
relation ship</w>
alis mo</w>
provi sion</w>
S ep
destac ar</w>
inver siones</w>
activ ity</w>
introduc tion</w>
cre e</w>
liber alización</w>
limi ted</w>
comi en
h op
mater ial</w>
Re gi
con tigo</w>
mi erda</w>
fe el
Austri a</w>
20 13</w>
au </w>
ú til</w>
i ci
li es</w>
hac emos</w>
fis h</w>
chec k</w>
í ri
ex change</w>
leg ales</w>
medioambi ental</w>
fai l
eg a</w>
re cuer
earli er</w>
i ld</w>
S um
OM C</w>
Econ ómi
govern mental</w>
tri ed</w>
gh ter</w>
ed ades</w>
p ad
docum entos</w>
go biernos</w>
o ther
refer red</w>
d om</w>
manif est
actu alidad</w>
dom in
minu tos</w>
fom entar</w>
ex pen
loo ks</w>
ing u
adop tado</w>
requi res</w>
Intern acional</w>
par ts</w>
j unio</w>
a propi
pequeñ o</w>
ej er
ali se</w>
de lic
pueb los</w>
J ap
high er</w>
particip ar</w>
ér ica</w>
reci bido</w>
P ero</w>
li mpi
, 000</w>
ci mientos</w>
end or
exist entes</w>
mea sure</w>
con ten
D o
proc ede</w>
2 1</w>
ev ent</w>
b loc
Sec re
tain ed</w>
i é</w>
N os</w>
atori o</w>
continu ar</w>
ex is
reconoc er</w>
po bres</w>
al c
car go</w>
podr íamos</w>
ar los</w>
conoci miento</w>
Y u
m ad
dis pu
dra wn</w>
an ía</w>
subst anti
w ouldn</w>
7 0</w>
v emos</w>
doc tor</w>
í n</w>
consumid or</w>
reci a</w>
ai l</w>
difer encias</w>
diversi dad</w>
de d
bo ard</w>
an zas</w>
s anc
b anc
r se</w>
ini </w>
h incap
do or</w>
sig n</w>
Th at</w>
s cal
esp íri
Ac ta</w>
hincap ié</w>
high ly</w>
intro ducir</w>
cul pa</w>
gh ting</w>
mand ato</w>
pre vención</w>
qu et
parti do</w>
evid ence</w>
other wise</w>
bal anced</w>
Amer ica</w>
U k
competi tive</w>
opini ones</w>
intent ar</w>
s le
estab l
car r
k i</w>
i os</w>
anu ary</w>
san ciones</w>
peti ción</w>
ca used</w>
J anuary</w>
ent re
establ ece</w>
go bern
Uk ra
wh om</w>
H i
main tain</w>
ist as</w>
contin ú
correc to</w>
cerr ado</w>
igu almente</w>
trans fer
puer ta</w>
ali sts</w>
ar an</w>
trans mi
Qu e</w>
ic ally</w>
us es</w>
dem ands</w>
a per
ris m</w>
ain ed</w>
veh ic
proper ly</w>
an ismo</w>
inten ded</w>
flexi ble</w>
mili tar</w>
am o</w>
langu age</w>
bu ild</w>
T E
s mo</w>
i ba</w>
rene w
m esa</w>
thre at</w>
H i</w>
shi ps</w>
st af
pro mis
cion ar</w>
de tal
cover ed</w>
every body</w>
ing ing</w>
cor az
ent u
hab lado</w>
Polic y</w>
pre tty</w>
Lu xemb
el er
produc t</w>
go s
post ura</w>
ur ge</w>
fir me</w>
dici endo</w>
An d</w>
sig ned</w>
C ap
utili zación</w>
ac ks</w>
logr ado</w>
m emb
ari amente</w>
E nerg
. m.</w>
commit ments</w>
tot ally</w>
support ing</w>
an ual</w>
combati r</w>
op ening</w>
fuc king</w>
ex pendi
fun d</w>
públic as</w>
f en
cap az</w>
tur ales</w>
Re gulation</w>
199 6</w>
B e
encuentr an</w>
Europe ans</w>
to tal
reci entemente</w>
w id
M ay</w>
fr acas
conver g
gi r</w>
el ling</w>
fin ales</w>
ciud ad</w>
pu tting</w>
i legal</w>
pas sen
re present</w>
S E
ans w
ráp idamente</w>
perspec tivas</w>
so la</w>
ot a</w>
ej a</w>
qu en</w>
s cri
ampli a</w>
difer encia</w>
str ong
la un
áb amos</w>
u tes</w>
en ero</w>
ri se</w>
espíri tu</w>
al co
P resu
amen az
ambi ci
wor th</w>
tom ado</w>
car re
t t</w>
estudi o</w>
av ances</w>
clo ser</w>
circunst ancias</w>
evid entemente</w>
Com ité</w>
ór gan
b ru
an g</w>
so bre
2 2</w>
consider amos</w>
Gre ece</w>
car ri
arr ang
den omin
convinc ed</w>
ah or
hist ór
spiri t</w>
am or</w>
ai re</w>
wi sh
ul ly</w>
auth ority</w>
N G
S ar
demu estra</w>
ócr atas</w>
respon d</w>
estable cimiento</w>
ann oun
mis mas</w>
expendi ture</w>
deber á</w>
á mi
democrá tica</w>
A sia</w>
abo li
Ag enda</w>
regul ación</w>
lament ablemente</w>
dam age</w>
fuc k</w>
L A
lead ing</w>
oblig aciones</w>
fe ar</w>
Ex teriores</w>
cl ase</w>
ra ise</w>
ess ed</w>
regre t</w>
aspec t</w>
be b
ambi tious</w>
form er</w>
h it</w>
bre ak</w>
b ra
cu ál</w>
wi fe</w>
mo l
discus sing</w>
ñ a</w>
happen ing</w>
wa iting</w>
dist or
he al
á tico</w>
op on
d ob
p ar</w>
Rom a</w>
f ying</w>
pri mer
diversi ty</w>
é st
encontr amos</w>
be ar</w>
R ob
scal e</w>
regi onales</w>
con ci
2 3</w>
z an</w>
atur a</w>
trans fronteri
su stitu
tendr án</w>
h ará</w>
develop ments</w>
no on</w>
consoli d
cri tical</w>
ris ks</w>
19 8
Sum mit</w>
produc ed</w>
gu ess</w>
man u
fi re</w>
Joh n</w>
Constitu tion</w>
trabaj os</w>
ent en
p ér
nic os</w>
ha go</w>
medioambi entales</w>
hu h</w>
Econom ic</w>
docu ments</w>
for ced</w>
ir me</w>
use ful</w>
des af
G recia</w>
mi se</w>
Mun dial</w>
nei ther</w>
stat ements</w>
dich os</w>
dimen sión</w>
expl ain</w>
elec tri
wri tten</w>
j our
conclu de</w>
ef e</w>
concre tas</w>
ful fi
gr ado</w>
an e</w>
e ing</w>
agrad ezco</w>
ra id</w>
mencion ar</w>
suc edi
s mo
increas ingly</w>
dis h</w>
genu ine</w>
er ed</w>
preocup aciones</w>
es pañ
our ce</w>
h im
Pro di</w>
establish ing</w>
a us
repres ents</w>
con ference</w>
u to</w>
po ster
pro fun
w in
contr ary</w>
impro ved</w>
su l
can c
la ws</w>
v ino</w>
muer to</w>
refugi ados</w>
Ministr os</w>
tro l</w>
lo se</w>
l y
es pos
Geor gia</w>
limi t</w>
de liber
re fer</w>
mon o
a fron
condi ción</w>
cu ya</w>
ack no
alc ance</w>
ac us
obst á
grow ing</w>
Ser bia</w>
aband on
deci dido</w>
satisfac tori
ofre ce</w>
esper anza</w>
C am
s en</w>
reduc ing</w>
inc en
pal est
int el
Sep t
co inci
Min utes</w>
excu se</w>
o la</w>
tecnolog ía</w>
gl ad</w>
cu yo</w>
strength ening</w>
sup posed</w>
responsabili dades</w>
fab ric
pequeñ a</w>
A fr
vo z</w>
becom ing</w>
appe ar</w>
cap aces</w>
z ó</w>
s ali
gran de</w>
mo ving</w>
achiev ing</w>
tu lo</w>
mon th</w>
Y o</w>
ed en</w>
man ner</w>
ver se</w>
afec ta</w>
P s</w>
I tal
under standing</w>
op position</w>
requi re</w>
hist or
pe dido</w>
amb as</w>
in sist
en h
equi po</w>
be au
Sp anish</w>
fr ag
mal di
immedi ately</w>
Mar ch</w>
comb ating</w>
al ta</w>
hab ido</w>
Ital y</w>
mi edo</w>
CO 2</w>
N L</w>
emphasi se</w>
Go biernos</w>
dich as</w>
bro ad</w>
do y</w>
fac ing</w>
V ic
verdad era</w>
reg las</w>
ag </w>
ot as</w>
dra f
pres encia</w>
H el
n on
enti rely</w>
ef ully</w>
ent ender</w>
hi jos</w>
estab an</w>
oz co</w>
prohibi ción</w>
d ó
des ea</w>
independ encia</w>
produc ers</w>
regu lar
l or
staf f</w>
aim s</w>
introduc ed</w>
at titu
im possible</w>
human a</w>
concre te</w>
K ar
sor y</w>
conflic tos</w>
princip almente</w>
comunit arias</w>
Qui eres</w>
influ ence</w>
re a
R ules</w>
tecnolog ías</w>
M id
recon struc
candid ate</w>
Tur k
analy sis</w>
Yu gos
o to</w>
m m</w>
absolu to</w>
expres ión</w>
vi stas</w>
Itali a</w>
ocur re</w>
out come</w>
inclu ye</w>
fic ina</w>
bo o
A T</w>
li br
ha ven</w>
buen os</w>
ú s</w>
ma yo</w>
correc t</w>
Hun g
v ements</w>
aconte cimientos</w>
pro du
t est</w>
et aria</w>
o jos</w>
g ame</w>
curr ency</w>
ne ws</w>
í do</w>
S ud
we ak
ráp ida</w>
af raid</w>
ad ded</w>
com ment</w>
fic ado</w>
exist encia</w>
aut én
ul t</w>
sufici entes</w>
logi es</w>
h echos</w>
mec anismo</w>
cum bre</w>
ch ica</w>
ocu par
uni on</w>
natur ally</w>
l ands</w>
Al b
correspon de</w>
n ation
o posición</w>
sen s
pe or</w>
mon eda</w>
coment arios</w>
reci bir</w>
pre vention</w>
el ements</w>
pos es</w>
ver s</w>
segur a</w>
pod remos</w>
n ation</w>
manu fac
é is</w>
aper tura</w>
benefici o</w>
neg ative</w>
Sec urity</w>
car ne</w>
d ot
B os
advant age</w>
ti n</w>
wan na</w>
soci os</w>
e yes</w>
mon etary</w>
got ta</w>
recogni se</w>
mar zo</w>
plant ea</w>
mor al</w>
máxim o</w>
segur os</w>
presupuest aria</w>
e lig
respon sibilities</w>
car ga</w>
Gr acias</w>
int as</w>
er ía</w>
h ice</w>
vo ice</w>
ti ó</w>
infrastruc ture</w>
defini ción</w>
Gre en</w>
cuid ado</w>
inter esting</w>
subray ar</w>
clar idad</w>
sur ance</w>
res ist
pequeñ os</w>
flo or</w>
refer end
mer ece</w>
famili ar</w>
L on
E S
armon ización</w>
est ará</w>
elem ento</w>
ori gin</w>
no body</w>
cat á
star ting</w>
Señ oría</w>
li o</w>
consen so</w>
gener ales</w>
si t</w>
di ed</w>
de gre
crédi tos</w>
efici encia</w>
flexi bilidad</w>
constitu yen</w>
facili tar</w>
appl ause</w>
N ov
s ou
def ender</w>
Pro toco
po l</w>
reduc ed</w>
e u
aprovech ar</w>
fail ure</w>
exi ge</w>
S pain</w>
to p
E r
coraz ón</w>
ish ed</w>
vehí culos</w>
só li
señ ores</w>
su r</w>
tran qui
relacion ados</w>
sab ía</w>
concep t</w>
exclu siv
differ ences</w>
catá stro
b uro
id en
recogni tion</w>
P Y
comprehen sive</w>
administr ación</w>
G i
supon go</w>
ingres os</w>
des ear
En viron
s ources</w>
ati cally</w>
for me</w>
de v
s man</w>
añad ir</w>
mar ks</w>
no ta</w>
un less</w>
pre visto</w>
buro cr
bus car</w>
h und
preocup a</w>
cu entas</w>
val or
in aceptable</w>
ex tran
rapporteur s</w>
ester n</w>
particular mente</w>
ge es</w>
at a
Fund am
For eign</w>
dé j
pend ing</w>
inform ed</w>
ti embre</w>
frau d</w>
ro b
pas aj
agríco las</w>
des tru
é l
í os</w>
it ali
permi ta</w>
traf fic
tur ned</w>
N A
señ al</w>
prev ent
J es
trat ado</w>
Sept ember</w>
com port
sac ri
de t
E so</w>
altern ative</w>
gar es</w>
P ak
Y or
extran j
Ru man
l ación</w>
contro les</w>
olog ical</w>
flexi bility</w>
Rom ania</w>
organis ation</w>
thous ands</w>
Fon dos</w>
centr o</w>
re le
su peri
i bles</w>
attemp t</w>
v os</w>
N u
equi p
l aid</w>
desgraci a</w>
bi lateral</w>
gro und
agradec er</w>
af ter
de lin
aprob ar</w>
f f
manag ed</w>
Rus sian</w>
ro und</w>
in qui
re cuerdo</w>
W al
dru gs</w>
9 0</w>
sensi tive</w>
reci b
Re present
dic en</w>
recommend ations</w>
s we
consen sus</w>
hac es</w>
t ch</w>
co ste</w>
sp ent</w>
ad oras</w>
áne o</w>
anis mos</w>
b and</w>
sep tiembre</w>
L a
s ang
f as
situ aciones</w>
co lec
mec anismos</w>
recomend aciones</w>
ev ening</w>
ch icos</w>
commer cial</w>
atr ás</w>
amb er</w>
deci dir</w>
happen s</w>
exc esi
Hu man</w>
Con ven
establish ment</w>
er ing</w>
ke eping</w>
ep t</w>
Es paña</w>
W i
strong ly</w>
d ando</w>
ar ían</w>
gu ard</w>
gubernam ental</w>
verdad ero</w>
í es</w>
aco jo</w>
is s</w>
propi as</w>
Sab es</w>
T en
c en
termin ar</w>
pod ía</w>
S M
se ek</w>
pr estar</w>
ap ren
mínim o</w>
Nor te</w>
for c
Con trol</w>
p es</w>
pap er</w>
escuch ar</w>
agrad ecimiento</w>
f ast</w>
pag ar</w>
et c
ex ha
poten cial</w>
wor se</w>
re par
n es</w>
her mano</w>
apro xim
s li
deleg ation</w>
pas ó</w>
In stitu
br inging</w>
meth ods</w>
tur as</w>
oc cu
super visión</w>
estu vi
concre tamente</w>
S y
U K</w>
tain ing</w>
su ger
consider ación</w>
segu imiento</w>
thir dly</w>
legisl ativo</w>
is es</w>
pro spec
pas s</w>
M ol
perspec tive</w>
á s
liber alisation</w>
im posible</w>
observ ación</w>
int elig
á ticos</w>
alco ho
Nov ember</w>
mili tar
sp ace</w>
U cr
alcan zado</w>
s ation</w>
di co</w>
mi tad</w>
consi ste</w>
si ete</w>
ne y</w>
200 </w>
elec ted</w>
human o</w>
elector al</w>
$ </w>
C I
C A
oí do</w>
op ti
g un</w>
c ari
practic es</w>
ar ity</w>
t ant
elec tr
appli es</w>
Ukra ine</w>
cier ta</w>
re tos</w>
im puesto</w>
E m
lear n</w>
trat amiento</w>
elec ción</w>
ex plan
niñ o</w>
apla usos</w>
ú n
Christi an</w>
Ucr ania</w>
conv ic
net work</w>
Mini sters</w>
sanc tions</w>
territori al</w>
ing dom</w>
Palestini an</w>
pen al
ph one</w>
Conven io</w>
A 5</w>
correspon di
sy m
negoci ación</w>
dist intas</w>
pens é</w>
ec ológ
g ers</w>
observ aciones</w>
reci ente</w>
plante amiento</w>
Itali an</w>
in side</w>
0 2
A t
ati es</w>
produc to</w>
enorm ous</w>
Ori ente</w>
Ru le</w>
le yes</w>
3 1</w>
un ani
ari edad</w>
reser v
enc ant
refu gees</w>
Pri me</w>
desempeñ ar</w>
wat ch</w>
requi ere</w>
3 5</w>
integr ated</w>
credi t</w>
acom pañ
bro ther</w>
bar ri
net works</w>
low er</w>
2 6</w>
administr ation</w>
fel t</w>
implic a</w>
cent ur
B us
er t</w>
efec tivamente</w>
institu ción</w>
Ag encia</w>
medi anas</w>
lími te</w>
sus pen
coun ter
S trat
In d
blo od</w>
novi embre</w>
re ply</w>
S i</w>
ho od</w>
as pir
ob li
PY ME</w>
agu as</w>
r ad
correc ta</w>
deal t</w>
deleg ación</w>
V an</w>
ord en
refi ero</w>
gr ad
Bel gi
high li
c ouldn</w>
s .</w>
incre ment
an k
institu tion</w>
tar gets</w>
ob ra</w>
si vo</w>
govern ance</w>
ess ing</w>
elec tró
pr ensa</w>
direc tives</w>
tar á</w>
fu entes</w>
ac tiva</w>
reg lament
t ario</w>
Li bro</w>
b it
qu it
199 5</w>
si ti
an unci
organis ed</w>
s car
gas to</w>
inmigr antes</w>
sec ure</w>
hosp ital</w>
in dis
construc tive</w>
mé todo</w>
fac ed</w>
podr án</w>
run ning</w>
ag encies</w>
l un
Ne w</w>
comen zar</w>
evolu ción</w>
posi tions</w>
mom </w>
pri vi
pe ac
vec inos</w>
Yor k</w>
examin ar</w>
sub mitted</w>
sufici entemente</w>
Environ ment</w>
P A
s y</w>
in spi
t rou
o h</w>
fre cuencia</w>
llev ado</w>
mechanis m</w>
debati r</w>
la w
c ad
A mbi
de ep
Pe ople</w>
impul s
ME Ps</w>
E C</w>
inter cambio</w>
mer canc
el eg
inclu ido</w>
vot es</w>
expec ted</w>
comple to</w>
des per
fai led</w>
F eder
tr ices</w>
frau de</w>
wor ry</w>
Strat eg
pi ensa</w>
diver sos</w>
t es
li k
addres sed</w>
un able</w>
pad res</w>
th u
transpar ent</w>
mer ely</w>
weap ons</w>
fi ghting</w>
reser vas</w>
z ados</w>
inst al
oblig ations</w>
solici tud</w>
O s</w>
inter vention</w>
dipu tado</w>
inten to</w>
of ficial</w>
ti ful</w>
ec a</w>
enci ma</w>
pl ur
elimin ar</w>
i sta</w>
re port
aj ust
perfec tamente</w>
Oc to
appro val</w>
elabor ación</w>
eti quet
poli tici
impro vement</w>
produci do</w>
men or</w>
att le</w>
señal ado</w>
grat eful</w>
tru ly</w>
dam n</w>
Proc ed
di ó
sen sible</w>
aliment aria</w>
Ambi ente</w>
dimen sion</w>
pl aying</w>
lead ers</w>
Mid dle</w>
relacion adas</w>
p ac
perman ente</w>
pes qu
in evit
as su
Octo ber</w>
bus c
pr ud
n av
b ai
enferme dades</w>
traf fic</w>
lli ons</w>
dej ado</w>
com mitt
ti ble</w>
contain s</w>
am ento</w>
cou ple</w>
main ly</w>
Pap er</w>
def en
deri v
repe at</w>
bre ve</w>
promo ción</w>
cer ti
univer sal</w>
mé todos</w>
sust ancias</w>
great est</w>
av ing</w>
hacer se</w>
ci les</w>
progres os</w>
garant ías</w>
wh il
pó sito</w>
tech no
ur gente</w>
whil st</w>
elec tion</w>
Ir an</w>
dr am
S co
autor idad</w>
av ance</w>
rejec ted</w>
meth od</w>
bur den</w>
mu tual</w>
tu bre</w>
fundam ento</w>
elabor ar</w>
comple x</w>
T o
obvi ous</w>
Nor th</w>
am es</w>
qu ali
vuel ta</w>
fe li
bu rea
con tiene</w>
min orías</w>
exerci se</w>
st ood</w>
dis charge</w>
ig n
fig ures</w>
W il
pre ad</w>
ch ico</w>
trav el</w>
man date</w>
ap point
of fici
aw ar
defini tion</w>
pi e</w>
parliam ents</w>
ll er</w>
Proced ure</w>
P i
inter ested</w>
pers ons</w>
ab st
K ingdom</w>
Pro tec
st atis
fi f
decir le</w>
dud as</w>
so ber
cre es</w>
vi </w>
s esiones</w>
tion ing</w>
U n</w>
famili es</w>
L os</w>
oc tubre</w>
per dido</w>
Car ta</w>
continu ing</w>
Ag ency</w>
su el
Turk ish</w>
habl amos</w>
tal ks</w>
Euro pol</w>
N o
m entos</w>
proporcion ar</w>
vi endo</w>
lik ely</w>
apru eb
tar get</w>
dang er</w>
disast er</w>
dr ía</w>
z can</w>
aliz ado</w>
A b
burea ucr
fig ure</w>
interes ante</w>
determin ados</w>
pasaj eros</w>
vid as</w>
ec ha</w>
in es</w>
2 8</w>
D avi
mu estra</w>
R O</w>
wish es</w>
S h
person ally</w>
des ire</w>
st op
tendr ía</w>
de p
feel ing</w>
sh u
attitu de</w>
har é</w>
dis ci
an o
estableci do</w>
contamin ación</w>
person almente</w>
ventaj as</w>
terrori stas</w>
profesi onal</w>
afec tados</w>
for d</w>
plen o</w>
resolu tions</w>
v ías</w>
follow ed</w>
traffic king</w>
car ta</w>
medi cam
coher ente</w>
refle j
Ir án</w>
b ye</w>
consul tation</w>
degre e</w>
llam ado</w>
dro gas</w>
norm ativa</w>
att ack</w>
ded or</w>
j oy</w>
In v
com bus
him self</w>
dis fru
t ame</w>
ma la</w>
part ner</w>
20 11</w>
to wn</w>
ab ajo</w>
fu sión</w>
dar le</w>
be t</w>
t elec
C ri
c e
s ave</w>
memb ership</w>
sang re</w>
dem anda</w>
suc ede</w>
ir é</w>
bas ada</w>
mechanis ms</w>
cl á
Af gh
Strateg y</w>
ti les</w>
pub lici
á g
organis mos</w>
substanti al</w>
ot s</w>
renew able</w>
c ent</w>
ti erra</w>
reas onable</w>
Bar cel
us a</w>
pro toco
in come</w>
differ ence</w>
clá usu
disci pl
li sten
lin ked</w>
vi ve</w>
pay ments</w>
ac ting</w>
S ol
olvid ar</w>
ci dad</w>
protec ting</w>
Barcel ona</w>
SM Es</w>
compe t
pas ada</w>
st ory</w>
he av
r id
inten tion</w>
posi tivos</w>
independ ence</w>
llam a</w>
e at</w>
Ch amber</w>
ha gan</w>
see ing</w>
respe tar</w>
beau tiful</w>
inten d</w>
rel ativ
at oria</w>
l av
famili as</w>
in ed</w>
líne as</w>
C a
il ater
oper ación</w>
L am
ab </w>
ul ti
resol ve</w>
asu mir</w>
Ho w</w>
cari ño</w>
l es
speak ers</w>
se ven</w>
consci entes</w>
diver sas</w>
contr at
ir ía</w>
plan ning</w>
continu ación</w>
ent er</w>
cier tamente</w>
dise ase</w>
liber tades</w>
modi ficación</w>
agu ar
ari es</w>
puer tos</w>
so ver
play ed</w>
tiemp os</w>
struc ture</w>
dese amos</w>
pron unci
E R
sig a</w>
fin ance</w>
ens or</w>
cre er</w>
P at
ju dici
Program a</w>
depen de</w>
E S</w>
expres sion</w>
i zar</w>
oun ds</w>
won der
B re
lími tes</w>
hab ían</w>
h us
b at
en en</w>
un ilater
li a</w>
op les</w>
bien estar</w>
p lu
apoy amos</w>
cuer po</w>
inclu des</w>
comunit arios</w>
direc trices</w>
b in
consci ente</w>
no lóg
cier tos</w>
le tter</w>
direc ta</w>
cuar to</w>
Bal k
h o</w>
fin es</w>
on y</w>
sum amente</w>
apo ya</w>
pedi mos</w>
oc cur
g ing</w>
pag os</w>
de z</w>
auth or
spe ed</w>
bi gg
Char ter</w>
go al</w>
O T
independi ente</w>
inst ance</w>
tr o</w>
L e</w>
res puestas</w>
po cos</w>
llam amiento</w>
tr am
mis s</w>
lan dia</w>
guarant ees</w>
bl emente</w>
S we
Bos nia</w>
stu ff</w>
direc tivas</w>
ha z
si des</w>
urg encia</w>
vi ven</w>
demostr ar</w>
rec lam
c y
employ ed</w>
d emos</w>
permitir á</w>
re infor
plante ado</w>
terri tory</w>
er á</w>
subsidi arity</w>
tel é
contro ls</w>
re mi
fis c
se tt
pedi r
k ept</w>
bu y</w>
present a</w>
peri odo</w>
re p
dob le</w>
mar gen</w>
por tu
enc amin
ec es</w>
contro ver
ar ma</w>
fu tura</w>
feli z</w>
hol ding</w>
l ation</w>
consist ent</w>
promo tion</w>
S al
exist ence</w>
humanit aria</w>
situ ations</w>
immedi ate</w>
af fairs</w>
r on
won der</w>
conclu ir</w>
ten gamos</w>
nucle ares</w>
ver i
ar m</w>
Hu manos</w>
exper tos</w>
techno logies</w>
tu ve</w>
t edly</w>
of f
Com ún</w>
ap par
pos t</w>
h t</w>
suffer ing</w>
lo ven
ur b
oun iden
pas ando</w>
telé fon
car efully</w>
c raz
1 5
pe oples</w>
ap r
D A</w>
dis cre
contro lar</w>
tre aty</w>
Pri mer</w>
r ates</w>
com parti
op posed</w>
mp ing</w>
it able</w>
tur no</w>
enferme dad</w>
em pr
per der</w>
recommend ation</w>
estad ouniden
J er
re alis
alcoho l</w>
le aving</w>
L o
a part</w>
c ali
def end</w>
li </w>
b all</w>
end en</w>
ha y
estab ili
hel ping</w>
po ca</w>
se ts</w>
s tic
im poner</w>
f em
u t
a un</w>
Y a</w>
compañ ías</w>
neigh bour
abier to</w>
ir án</w>
En g
Program me</w>
estr an</w>
some body</w>
h ou
cont acto</w>
pregun tar
bur go</w>
y os</w>
exten d</w>
gr áfic
de ar</w>
é tica</w>
raz onable</w>
cu alific
cu la</w>
visi t</w>
cor to</w>
pens ando</w>
c asi
liber al</w>
a fortun
7 5</w>
invol vement</w>
sup ports</w>
Tra de</w>
econom ies</w>
aco g
en ed</w>
ex ecu
celebr ar</w>
obst ac
str ai
he ad
añ adi
Afr ican</w>
s cre
cla im
específic as</w>
y er</w>
mercanc ías</w>
mag n
consul ta</w>
an teriores</w>
lan tic</w>
r ange</w>
adi cionales</w>
gr adu
car eful</w>
tu des</w>
wor k
j as</w>
C ul
A z
bien ven
f res
Cy pr
Cypr us</w>
2 9</w>
a fr
C as
ba sta</w>
present adas</w>
easi er</w>
P en
A pri
bo l</w>
trim on
tou rism</w>
bo ok</w>
w in</w>
desig ned</w>
tur ning</w>
Po pular</w>
d ings</w>
ri </w>
cal end
J ef
J ack</w>
per tin
f ant
cour t</w>
v u
h ot
qued ado</w>
gen ial</w>
k o</w>
appe al</w>
LA F</w>
ed ing</w>
g ender</w>
U E
fri end
recor d</w>
ar las</w>
D en
Am érica</w>
it ely</w>
Z im
Cu ba</w>
or no</w>
actu ación</w>
es co
invol ving</w>
form al</w>
e cia</w>
gr anted</w>
recomend ación</w>
E l
contribu y
pres ence</w>
H ol
per s</w>
inter ven
ver s
Apri l</w>
He alth</w>
cam paña</w>
su d
seri es</w>
pro pósito</w>
ach es</w>
plant ear</w>
y ed</w>
D is
movili dad</w>
gobern anza</w>
pregun to</w>
c le</w>
medi cin
v it
see king</w>
Ju ly</w>
pub li
exam ine</w>
lar ga</w>
suministr o</w>
intro duci
of fic
tur ing</w>
el l
de ad
terc era</w>
m ing</w>
S V</w>
par ents</w>
ent y</w>
A sh
Au di
de tr
meet ings</w>
á l
ot or
C lar
Pol and</w>
po deres</w>
ri d</w>
inter ru
medicam entos</w>
funcion arios</w>
dó lares</w>
ti dos</w>
distribu ción</w>
P acto</w>
so f
enc ed</w>
l án
f are</w>
pas sed</w>
sen o</w>
ton om
. 00</w>
continu es</w>
craz y</w>
i remos</w>
sign al</w>
par ecer</w>
Mac ed
ent an</w>
numer osas</w>
compati ble</w>
vuel to</w>
te am</w>
recogn ised</w>
ad qui
shor t
conduc t</w>
Cu ál</w>
n ations</w>
un idad</w>
pens able</w>
r ar
minu to</w>
conoc er</w>
manifi esto</w>
appear s</w>
mat ely</w>
pen siones</w>
h our</w>
cifr as</w>
am ás</w>
lev ant
4 5</w>
uc k</w>
dis minu
glob alisation</w>
Ruman ía</w>
terror ist</w>
natur ales</w>
9 8</w>
P act</w>
llam ada</w>
ent reg
escuch ado</w>
K or
k id</w>
com e
0 3
á les</w>
1 3
s ource</w>
appreci ate</w>
any way</w>
shar ed</w>
Pol onia</w>
V al
con ferencia</w>
ju lio</w>
presupuest ario</w>
res um
wi lling</w>
resol ved</w>
sk i</w>
high light</w>
op ción</w>
stand ard</w>
plen ary</w>
edi fici
fu i</w>
kid s</w>
entr y</w>
pro ve</w>
sig lo</w>
F re
dec ep
ic amente</w>
telec om
G ar
soci o</w>
ap li
influ encia</w>
jur is
di ga</w>
bin ding</w>
r ami
campa ign</w>
extr a</w>
econom ías</w>
h id
cor ri
evalu ation</w>
re al
deta il</w>
hon or</w>
consequ ently</w>
proc eed
A le
én ero</w>
ro man
el ement</w>
subsidi ariedad</w>
mo bility</w>
ong st</w>
am ongst</w>
z amos</w>
o cho</w>
tack le</w>
pro mise</w>
ani an</w>
garant ía</w>
oc casi
cont empl
funcion a</w>
militar es</w>
efec tiva</w>
committ ees</w>
inter venir</w>
f am
b s</w>
Pa í
aer o
esper ando</w>
tr a</w>
Pl an</w>
áre as</w>
subst ances</w>
competen ce</w>
fisc ales</w>
critici sm</w>
I B</w>
sigui entes</w>
loo ked</w>
tí o</w>
ab sur
equ ally</w>
r ich</w>
estudi os</w>
trans form
moder ni
plac es</w>
ciudad ano</w>
exha us
civi les</w>
aj es</w>
si bly</w>
profes sional</w>
gir ls</w>
ac tivo</w>
o fici
sho t</w>
Chi pre</w>
en de</w>
Sw eden</w>
invol ve</w>
cont act</w>
dé fici
convers aciones</w>
ali ties</w>
qui erda</w>
neigh b
siz e</w>
on ic</w>
emb ly</w>
del ay</w>
a ther</w>
re to</w>
trat ando</w>
mi l</w>
- no</w>
th or
cli ma</w>
án d
explo tación</w>
be ar
ser es</w>
re ject</w>
T om
pri son
poli tics</w>
recuper ación</w>
ag encias</w>
Eur o</w>
detail ed</w>
n one</w>
parlament aria</w>
po or
emp i
caus es</w>
un anim
ra í
pi ece</w>
a pe
anti cip
vehic les</w>
plen a</w>
equi val
obvi amente</w>
desear ía</w>
d y
propos ing</w>
fai r
monit or</w>
fo ot
í ble</w>
present ación</w>
prior it
exig encias</w>
Swe dish</w>
E astern</w>
drin k</w>
lo cu
propi edad</w>
qu í
adop ting</w>
pollu tion</w>
ex pedi
convertir se</w>
verdad eramente</w>
gener ally</w>
extrem adamente</w>
CO M</w>
sup pli
subsidi es</w>
tiv eness</w>
tel ling</w>
au tonom
gar an
Organ ización</w>
i bilidad</w>
re flexi
Ch in
convenci do</w>
es -</w>
religi ous</w>
landes a</w>
k in
com it
gh t
pon en</w>
ar ás</w>
vie jo</w>
in ti
r an</w>
pag o</w>
compli ance</w>
el es</w>
creci ente</w>
compl ain
or ed</w>
e los</w>
certain ty</w>
as tric
c amente</w>
contin ente</w>
bas es</w>
Davi d</w>
a qui
Mon etary</w>
inclu sión</w>
Ma astric
shi p
credi bilidad</w>
comp ly</w>
Par a</w>
t esti
mo tiv
min orities</w>
efic aces</w>
lu gares</w>
e ye</w>
pe d
prev é</w>
det all
me ant</w>
mun di
no t
leg ally</w>
ma xim
Maastric ht</w>
tur ismo</w>
o ficial</w>
hi ja</w>
or adores</w>
employ ees</w>
fai l</w>
quer ido</w>
aére o</w>
me tros</w>
limi ts</w>
especi ales</w>
ab u
co che</w>
ex port</w>
reg lamentos</w>
esenci ales</w>
con stat
C z
obstá culos</w>
d au
conc edi
W estern</w>
inter venciones</w>
Belar us</w>
técnic as</w>
centur y</w>
reuni ones</w>
commun ities</w>
represent an</w>
ground s</w>
vir tud</w>
últim as</w>
Est e</w>
i e</w>
B aj
sol ve</w>
al re
consum ption</w>
mul tin
L eg
di señ
infr ing
con ozco</w>
di ces</w>
ac eler
der ed</w>
manten imiento</w>
n el</w>
pres entes</w>
ra il</w>
Regi onal</w>
Gre ek</w>
struc tures</w>
ori es</w>
dom es
S truc
i an</w>
tró leo</w>
att acks</w>
j efe</w>
S ea</w>
super ar</w>
Maced onia</w>
ri a</w>
super vi
re volu
Su ecia</w>
M at
in fec
renov ables</w>
ali a</w>
gr af
D E
res uel
condi tion</w>
politici ans</w>
dis puestos</w>
ampli ar</w>
exc es
Mediterr áneo</w>
impro vements</w>
cier tas</w>
enti t
moder n</w>
ex teriores</w>
ra il
W ell</w>
ir man</w>
reco very</w>
satis f
justi fied</w>
jo ven</w>
Com er
U N
B alcan
prepar e</w>
inclu idos</w>
harmon isation</w>
tr ac
clar as</w>
Zim bab
s pending</w>
empha sis</w>
conjun ta</w>
ad voc
Cu entas</w>
rel ativos</w>
pon ga</w>
T im
dese an</w>
ferro vi
ne ar</w>
or gul
9 7</w>
di ab
affec t</w>
Balcan es</w>
Fund s</w>
abri r</w>
multi lateral</w>
Struc tural</w>
firm emente</w>
tax ation</w>
indis pensable</w>
proced entes</w>
at amente</w>
su eñ
be ha
ac tú
there by</w>
min ority</w>
pe tróleo</w>
plan o</w>
numer osos</w>
cap able</w>
ti da</w>
sac ar</w>
etc .</w>
í r
especi e</w>
et as</w>
concre tos</w>
o fer
e o</w>
acab ar</w>
l ing
pas os</w>
V ice</w>
mist ake</w>
soci edades</w>
dist ingu
ap a</w>
C ha
e go
tar eas</w>
sub venciones</w>
vulner able</w>
defin e</w>
qu ar
pi ll
pro poner</w>
si as
n ic</w>
deb t</w>
an terior
k ay</w>
bas a</w>
d años</w>
t le</w>
po pular</w>
siti o</w>
re ales</w>
emerg ency</w>
peri o
credi bility</w>
espos a</w>
on ing</w>
sugg est</w>
f our
ur go</w>
mi llions</w>
w ine</w>
órgan os</w>
g y
oper aciones</w>
- como</w>
encontr ado</w>
hab lar
hor ri
im presión</w>
cier on</w>
bo s
mal o</w>
immigr ants</w>
d ai
In terior</w>
maxim um</w>
citiz en</w>
arri ba</w>
F u
sex u
per d
ei ght</w>
aplic a</w>
ad ly</w>
trans at
ov </w>
Yugos la
escu ela</w>
inmedi atamente</w>
infor m</w>
tab aco</w>
imag ine</w>
as h</w>
comun idades</w>
br ero</w>
al la</w>
Audi tors</w>
acab o</w>
d é</w>
rap id</w>
o vi
in er
dri ving</w>
infra estructuras</w>
L at
her man
arrang ements</w>
banc os</w>
vi les</w>
términ o</w>
emple ados</w>
im pedir</w>
stric t</w>
Y O
distribu tion</w>
com pu
dé bi
abri l</w>
b anks</w>
initi al</w>
Ch ech
dis puesto</w>
o cul
Chin ese</w>
deber án</w>
or d</w>
trans fer</w>
mo s
declar ation</w>
particip ate</w>
constru ir</w>
vi aje</w>
perfec t</w>
Com mun
en joy</w>
of reci
feder al</w>
pay ment</w>
atur e</w>
domes tic</w>
ulti mately</w>
enten dido</w>
difí ciles</w>
ni e</w>
defin itely</w>
chang ing</w>
perman ent</w>
z one</w>
ing ton</w>
carre tera</w>
ci ta</w>
olog ía</w>
Isra eli
pa th</w>
B on
go als</w>
Comer cio</w>
est aría</w>
compens ation</w>
au l</w>
centr ales</w>
superi or</w>
defin ed</w>
ar t</w>
ab ar
A N
deli ghted</w>
é t
vi able</w>
fen ó
us ar</w>
tec nológ
cri mes</w>
Ky oto</w>
preser v
Pl eno</w>
decir lo</w>
L uc
gi ble</w>
tici as</w>
terr áne
migr ation</w>
o ficina</w>
represent ative</w>
ob tain</w>
lin k</w>
ad ero</w>
nom br
S alu
et ing</w>
s at
ic s</w>
loc k</w>
s port</w>
Vic e
ri r</w>
Alb ania</w>
del ante</w>
Pu edo</w>
eg os</w>
Yugosla via</w>
lo ss</w>
os -</w>
ab e</w>
respec ted</w>
mar y</w>
x ed</w>
hur t</w>
regul atory</w>
3 00</w>
t antes</w>
um br
e -</w>
Commission ers</w>
repercu siones</w>
se x</w>
c k
comien zo</w>
tre ated</w>
OT AN</w>
inter locu
S am</w>
de part
confor me</w>
oblig ation</w>
f ing
estre ch
man age</w>
spo ke</w>
b ar</w>
viol aciones</w>
ai </w>
p .m.</w>
par cial</w>
di eron</w>
plan ned</w>
fac tors</w>
encour aging</w>
pac ífic
lab elling</w>
Amend ments</w>
ed y</w>
salv aguar
de terior
detr ás</w>
do w
Oc cid
teléfon o</w>
construc tion</w>
comple ta</w>
compar to</w>
di v
resolu ciones</w>
mono poli
for th
separ ate</w>
des plaz
shu t</w>
desig n
cle an</w>
Salu d</w>
jud g
R ural</w>
ne u
total idad</w>
elabor ado</w>
estat uto</w>
pes c
cu otas</w>
ne w
lam e</w>
dir é</w>
evalu ar</w>
crí tica</w>
ej as</w>
ú s
continu ed</w>
alre dedor</w>
determin ation</w>
vot aciones</w>
proc esos</w>
pobl aciones</w>
dra wing</w>
añadi do</w>
qued an</w>
enti ons</w>
pér dida</w>
speak er</w>
contin ent</w>
cour age</w>
fin ding</w>
su rely</w>
c ans
deb er</w>
A dió
G aza</w>
pen d</w>
im per
técnic a</w>
cre ado</w>
abier ta</w>
ver sión</w>
later ales</w>
Adió s</w>
felici to</w>
debati endo</w>
tem o</w>
Chri st
her rami
dou ble</w>
de trim
etiquet ado</w>
es cal
avo id
paci entes</w>
P SE</w>
last ly</w>
si ty</w>
hu bo</w>
conver tido</w>
Is lam
z arse</w>
dau ghter</w>
ra f
financi ar</w>
sti anos</w>
protec ted</w>
de uda</w>
exper ts</w>
h ori
D on
9 9</w>
c entre</w>
h all
dispon ibles</w>
- que</w>
l ying</w>
o te</w>
langu ages</w>
dri ve</w>
freed oms</w>
passen gers</w>
inclu ida</w>
dij iste</w>
usu al</w>
trou ble</w>
A lli
determin ación</w>
incre mento</w>
wel fare</w>
s ki
s pend</w>
D on</w>
hus band</w>
w arm
ac a</w>
modi ficar</w>
car acter
rest aur
ap enas</w>
expres ado</w>
escu cha</w>
stand s</w>
máxim a</w>
per secu
tr ading</w>
par ecen</w>
to bac
res i
B 5</w>
pl ani
H en
secre t</w>
l ess
g ica</w>
Paí ses</w>
contribu tions</w>
ant ing</w>
land és</w>
S ant
Ver de</w>
egr o</w>
tobac co</w>
cust oms</w>
ju z
b es
áre a</w>
comprob ar</w>
op tion</w>
as sure</w>
gr ati
bu ques</w>
9 6</w>
oper ations</w>
im posed</w>
occu p
dr á</w>
a sure</w>
mar ried</w>
ent orno</w>
numer ous</w>
US A</w>
O S
G ali
inform ar</w>
crí ticas</w>
ch em
reach ing</w>
allow ing</w>
T er
bar r
Afgh an
vi sa</w>
fre qu
futur as</w>
segu irá</w>
lleg a</w>
M e
legisl ativa</w>
recon cili
l lar
ph y
opini ons</w>
sh ad
it ation</w>
H ay</w>
realis tic</w>
exam en</w>
om en</w>
ag entes</w>
ag a</w>
NA TO</w>
func tioning</w>
estre cha</w>
Wh y</w>
gen e
adi cional</w>
present ada</w>
F i
me at</w>
f un</w>
after noon</w>
pic ture</w>
exist s</w>
bl ack</w>
C l
ar en</w>
ta ña</w>
Afghan istan</w>
insisti r</w>
f era</w>
bu l
st able</w>
cho ose</w>
v end
cuán do</w>
no ticias</w>
trimon io</w>
in surance</w>
ec o</w>
quí mi
li ter
conflic ts</w>
mar gin
p ick</w>
pow er
intent ando</w>
guarant eed</w>
comi siones</w>
beha vi
mo bili
id es</w>
determin adas</w>
hi </w>
favor able</w>
en em
g ü
soci ación</w>
Soci alist</w>
per pe
Cro ati
under stood</w>
oper ate</w>
Dec lar
cat ch</w>
invest ments</w>
referend um</w>
re ve
endor se</w>
baj a</w>
Ne ther
detail s</w>
awar eness</w>
re fuer
inmedi ato</w>
facili tate</w>
ne ar
et arios</w>
propos es</w>
u te</w>
su al</w>
vigil ancia</w>
bud sman</w>
oc a</w>
g us
X </w>
M il
bri ef
profesi onales</w>
satisfac tory</w>
r án</w>
pudi era</w>
enc er</w>
concre ta</w>
mejor as</w>
men ores</w>
Pu eb
consider ing</w>
eth nic</w>
con vier
transi ción</w>
t é</w>
priv ado</w>
tradi tional</w>
v é
tar ía</w>
lament able</w>
proper ty</w>
Nether lands</w>
fu el</w>
S u</w>
pregun tar</w>
Agricul tura</w>
Cz ech</w>
tiv idad</w>
peac eful</w>
volun tary</w>
c ep
accid ent</w>
sle ep</w>
Gru pos</w>
mot or</w>
corrup ción</w>
bienven ida</w>
negoti ating</w>
busc ando</w>
Bi en</w>
buil t</w>
legitim ate</w>
non e
G en
registr o</w>
t ac
Copenha gen</w>
om e
sal ud
1 6
medi cal</w>
aver age</w>
g ases</w>
primer os</w>
ocup a</w>
As s
algun o</w>
d año</w>
none theless</w>
bas ado</w>
D ar
is ra
constitu tional</w>
corrup tion</w>
explic ar</w>
t ap
ul ar</w>
E d
er me</w>
J ur
effec tiveness</w>
fir ms</w>
se as</w>
prepar ación</w>
afirm ar</w>
restric tions</w>
require ment</w>
detal les</w>
export ación</w>
forth coming</w>
inclu sion</w>
ac cu
prác ticamente</w>
eng añ
r as
O m
C E
ejer cer</w>
1 8
mur der</w>
Af gan
accid ente</w>
cul turales</w>
wal k</w>
M ari
defini tiva</w>
conc eder</w>
im pose</w>
g ain</w>
g énero</w>
nor te</w>
foun d
en de
bi ó</w>
ven ga</w>
Trat ados</w>
a parte</w>
lo s
S tras
po cas</w>
fac tores</w>
Ti enes</w>
en ab
Pueb lo</w>
inici ar</w>
E str
dru g</w>
caus as</w>
sanit aria</w>
har ía</w>
ap pointed</w>
Wh ite</w>
you rs</w>
afron tar</w>
deb es</w>
científic os</w>
tr ad
ju sta</w>
mu si
or o</w>
mur i
no ti
pur poses</w>
offici als</w>
coher encia</w>
ha el</w>
estu vo</w>
de fi
adop tadas</w>
estr o</w>
at ent
peri ó
Afgan istán</w>
dise ases</w>
Copenha gue</w>
profun di
spo ken</w>
í timo</w>
col on
EC U</w>
ben e
défici t</w>
de ep</w>
cualqui era</w>
dis curso</w>
exp an
exam ples</w>
tempor ary</w>
reflec t</w>
excep ción</w>
bour g</w>
su pri
alegr a</w>
O kay</w>
mi cro
tori a</w>
fig ur
l las</w>
trabaj an</w>
sor pren
tou ch</w>
A l</w>
cri men</w>
p t</w>
ri do</w>
car d</w>
ide z</w>
ab s
re ver
re alise</w>
conjun tamente</w>
B ob
mari time</w>
Fis ch
appro ve</w>
en forc
pa tri
Luxemb our
men d</w>
im peri
re ti
descu bri
tas ks</w>
reci entes</w>
no ches</w>
ocurri do</w>
ou b
c aj
car s</w>
ap reci
re min
movi miento</w>
restric ciones</w>
ic ación</w>
fu ente</w>
calend ario</w>
any body</w>
sch eme</w>
Baj os</w>
lin ed</w>
T his</w>
ak es</w>
nic as</w>
Stras bourg</w>
Geor ge</w>
fu ego</w>
segu imos</w>
defin ir</w>
radi o</w>
é s
end ed</w>
Portu gu
m ó
Pe ti
O LAF</w>
ís tica</w>
adecu adas</w>
L I
associ ated</w>
safe guard</w>
re ment</w>
señ oras</w>
Agricul ture</w>
re marks</w>
F er
transpar ente</w>
Def ensor</w>
ti me
cor e</w>
Estr as
th ro
op s</w>
pati ents</w>
l le</w>
m on</w>
1 7
pro ud</w>
r ul
ad ul
regre tt
unani midad</w>
so port
ay a</w>
isra el
di ca</w>
delin cuencia</w>
du mping</w>
A sociación</w>
ap un
asi sti
permi so</w>
vé ase</w>
au to</w>
er nos</w>
Balk ans</w>
occasi ons</w>
conci encia</w>
Estras burgo</w>
str onger</w>
s hap
Luxembour g</w>
c ami
qu anti
ex ci
bre v
dest ino</w>
impul so</w>
l ac
demonstr ate</w>
dir ía</w>
pi d</w>
hici ste</w>
ari al</w>
individu als</w>
depend ent</w>
br ings</w>
perfec tly</w>
m ass</w>
char acter
En t
ez ca</w>
orient ación</w>
br a</w>
en os</w>
afec tan</w>
T ú</w>
ejemp los</w>
prim arily</w>
so spec
contain ed</w>
W est</w>
ab use</w>
pens amos</w>
loy ment</w>
oper ators</w>
dig ital</w>
exclusiv amente</w>
ru ego</w>
entit led</w>
ag ency</w>
co de</w>
Hi gh</w>
ér cito</w>
in toler
Du tch</w>
rati ficación</w>
m ach
respal do</w>
pu so</w>
parti da</w>
hon ey</w>
disast ers</w>
20 12</w>
fac ts</w>
par ec
co decisión</w>
Bal tic</w>
D oc
ex emp
appropri ations</w>
red ac
for est
Comis arios</w>
ítim a</w>
err ores</w>
K en
Th ank</w>
199 4</w>
de bili
D P</w>
l ong
ri es</w>
ci one</w>
ali ve</w>
Om budsman</w>
phy si
Pu blic
ón -</w>
permí tame</w>
di das</w>
B la
pro te
exclu sión</w>
li fer
mis sing</w>
energé tico</w>
impres sion</w>
j e</w>
demonstr ated</w>
v enta</w>
c ár
t ables</w>
dur o</w>
res truc
St ability</w>
rap idez</w>
á ticas</w>
over come</w>
ec o
g al
desgraci adamente</w>
pes quer
wor st</w>
Energ y</w>
neu tr
nor ma</w>
CA P</w>
ent ed</w>
con firm</w>
trag edi
compar ed</w>
Res olu
apoy ado</w>
jurí dic
eb ru
E M
answ ers</w>
Belar ús</w>
ciud ades</w>
cooper ate</w>
aus encia</w>
bor n</w>
ali za</w>
afr ic
permi tido</w>
statis tics</w>
amoun ts</w>
her mo
pl á
glob alización</w>
hel ped</w>
mostr ar</w>
pesc adores</w>
S an</w>
dec ía</w>
siv ely</w>
r adic
represent ante</w>
proc eed</w>
Ser v
judici ales</w>
dro p</w>
und oub
b ank</w>
di vid
sal e</w>
Portugu ese</w>
pri son</w>
medi c
Presu puestos</w>
Mic hael</w>
cap í
h ec
lo so</w>
Public </w>
F ebru
a sta</w>
s pr
ata que</w>
tas a</w>
Febru ary</w>
segu ido</w>
any more</w>
pos ing</w>
pen sab
se ar
enor mes</w>
cl ass</w>
dign ity</w>
Ent onces</w>
conclu ded</w>
subst ance</w>
mon etaria</w>
friend ly</w>
V en
PA C</w>
Mol do
Bu t</w>
mor ir</w>
investig ation</w>
o j
no ted</w>
H U</w>
conoci mientos</w>
tele visión</w>
viol ación</w>
har m
cre en</w>
ac </w>
p in
Pe ter</w>
deber ías</w>
p eso</w>
o x
sm all
ad vi
pro of</w>
inver tir</w>
aliz ada</w>
man do</w>
v ina</w>
fracas o</w>
l d
collec tive</w>
p is
cal cul
person ales</w>
der á</w>
con oce</w>
autom ó
re an
invol ves</w>
offer ed</w>
dign idad</w>
ham bre</w>
lat est</w>
vi sible</w>
sur ve
poster i
mil k</w>
pos sibly</w>
A 4</w>
a tra
d amos</w>
exten ded</w>
lengu a</w>
proced er</w>
is on</w>
Mal ta</w>
com er</w>
emerg encia</w>
fun ciones</w>
ar d
d ame</w>
estr e</w>
at tr
vi o</w>
vir tu
revis ar</w>
allow s</w>
Inter gubernamental</w>
cion ado</w>
m enta</w>
tal ked</w>
conoci do</w>
equip ment</w>
exist ente</w>
ar bi
Dem ócratas</w>
pl ant</w>
al idades</w>
alloc ated</w>
numb ers</w>
requ ested</w>
tax es</w>
com ida</w>
recon oce</w>
er ia</w>
pro pag
stu pid</w>
Leg al</w>
ó lic
h ence</w>
op ciones</w>
high est</w>
P hi
ff s</w>
imag en</w>
muc hac
offer s</w>
contro l
aprob ada</w>
am s</w>
jour n
ci l
tom e</w>
n acion
farm ing</w>
accoun ts</w>
strai ght</w>
fe brero</w>
Jur í
ha se</w>
democrá ticos</w>
formul ar</w>
atori os</w>
hori zon
fi esta</w>
stu dies</w>
os amente</w>
su gi
d ul
específic a</w>
su elo</w>
sub sequ
sus pend
c af
franc és</w>
es for
efici ente</w>
pi lar</w>
h mm</w>
li der
firm ly</w>
altern ativa</w>
ph en
W at
st or
hay amos</w>
cambi ado</w>
import s</w>
un ión</w>
apr ender</w>
n aciones</w>
thre aten
determin ed</w>
Mar ket</w>
man tiene</w>
z ed</w>
per su
s ell</w>
t ations</w>
ést os</w>
err as</w>
ter ing</w>
pen sion</w>
cu áles</w>
é x
Bud gets</w>
efec tu
electr onic</w>
cor por
vuel ve</w>
announ ced</w>
pill ar</w>
some what</w>
const antly</w>
Fr amework</w>
juris dic
oc ca
desaf íos</w>
occa sion</w>
undoub tedly</w>
deci sive</w>
quali fied</w>
ple asure</w>
super vis
P es
mi do</w>
man n</w>
viol ations</w>
represent ed</w>
z amiento</w>
alegr o</w>
confirm ed</w>
democrá ticas</w>
mo dos</w>
ra ft</w>
T am
por cent
preci se</w>
Est oy</w>
anc y</w>
f ísi
dis poner</w>
cláusu la</w>
centr os</w>
coun ter</w>
cl ause</w>
ro und
ex pli
elegi do</w>
Nu eva</w>
poten ci
4 8</w>
ferro carri
har emos</w>
beb é</w>
si dad</w>
in ing</w>
portu gu
esti mul
manif estar</w>
I V
constitu tion</w>
tr ate</w>
permi tan</w>
syst em
re estructur
sa ke</w>
hear ing</w>
prepar ing</w>
p hase</w>
exces sive</w>
rad ical</w>
trabaj ado</w>
x ión</w>
pe lí
específic os</w>
lle gue</w>
identi dad</w>
raí z</w>
am p
rec ep
am ar
hon est</w>
promis ed</w>
x en
ning uno</w>
consider ando</w>
ON G</w>
qued ar</w>
adver ti
y le</w>
minist ers</w>
fisher men</w>
Fr on
oper ating</w>
N ic
s wi
technolog ical</w>
asi de</w>
sil enci
sor pr
plan ts</w>
obstac les</w>
h ate</w>
experim ent
S lov
j an</w>
bri ef</w>
E A
legi ti
Ind ustri
presu puestos</w>
vuel va</w>
j er
elimin ación</w>
ventaj a</w>
sinc eramente</w>
R ic
dev ast
oc cid
éndo se</w>
astr e</w>
super vision</w>
dy nam
orient aciones</w>
l ay</w>
su spec
individu ales</w>
conf ío</w>
es ia</w>
log ical</w>
inform al</w>
cuán to</w>
per sist
envi ar</w>
plac er</w>
suf fer</w>
introduc ing</w>
cri tic
Mar tin</w>
britá nico</w>
ri t
geo graph
anterior mente</w>
labor ales</w>
gre en</w>
visi ta</w>
Gr an</w>
den unci
stoc ks</w>
asesin ato</w>
ro m
infra estructura</w>
produc tive</w>
assu me</w>
phen om
D el
al tar</w>
Cro acia</w>
formul ada</w>
fiel ds</w>
ju dic
ano che</w>
d ados</w>
b lu
ju g
prevent ing</w>
Croati a</w>
K i
S o</w>
peti ciones</w>
jurí dicos</w>
gener ation</w>
olog y</w>
Tre aties</w>
có digo</w>
func tion</w>
contr atos</w>
clu b</w>
refer ido</w>
arreg lo</w>
Israeli </w>
accid entes</w>
realiz ados</w>
lengu as</w>
Char lie</w>
open ed</w>
sist er</w>
vis ados</w>
li bres</w>
ho t</w>
ci entos</w>
ci ties</w>
descri bed</w>
g ados</w>
ur s
heal thy</w>
oper ational</w>
coment ario</w>
r os</w>
to ol</w>
ún gar
antigu a</w>
prob able</w>
energ ías</w>
llev an</w>
si ca</w>
enti ve</w>
Ori ental</w>
lo co</w>
ini cial</w>
lear ning</w>
prec au
pr er
m oun
li sto</w>
bási cos</w>
c indi
gener ación</w>
in struc
argu mentos</w>
Go od</w>
aprob ó</w>
pursu e</w>
larg est</w>
tax pay
penal ty</w>
é stas</w>
elegi r</w>
su je
z ará</w>
beli eves</w>
re pu
indus tries</w>
9 5</w>
tempor al</w>
sin dic
present ó</w>
tien de</w>
go ver
publici dad</w>
quot as</w>
behavi our</w>
Ac tion</w>
estad ísticas</w>
r ur
Moldo va</w>
k in</w>
be ings</w>
Mar co</w>
appl ying</w>
aprueb a</w>
S A
realiz ación</w>
char ges</w>
arbi tr
llam ente</w>
coun t</w>
rig uro
bo ys</w>
manufac tur
coordin ated</w>
aqu es</w>
du ties</w>
i legales</w>
hot el</w>
sp here</w>
aqu ellas</w>
legisl ativas</w>
ati zación</w>
Organ isation</w>
stru gg
re di
expect ations</w>
D eci
an king</w>
s un
rele ase</w>
re vision</w>
B ra
Un a</w>
senci llamente</w>
recha zo</w>
fe ed</w>
permi ten</w>
f ér
ed ores</w>
int er</w>
ami </w>
insi st</w>
n aci
heav y</w>
at en</w>
poli tically</w>
az o</w>
d ada</w>
de pri
lat ter</w>
oportun o</w>
compr ender</w>
ty pes</w>
explo itation</w>
blo que
intel lig
próxim as</w>
ev entu
identi ty</w>
ann y</w>
urg ently</w>
l ech
determin ar</w>
interru mp
YO U</w>
mon os</w>
IN G</w>
proc esses</w>
Fr ank</w>
M ar</w>
adv ance</w>
ec us</w>
e ties</w>
ra se</w>
co ol</w>
stic k</w>
ti bles</w>
pre mi
Europe os</w>
com ed</w>
concili ación</w>
presupuest arias</w>
histor ic</w>
appoint ment</w>
M us
Ass embly</w>
ep h
pr o</w>
inv esti
B lan
at ac
estudi ar</w>
S he</w>
vi vo</w>
gan ar</w>
independi entemente</w>
oc k</w>
it aria</w>
medi terráne
rur ales</w>
elev ado</w>
th ly</w>
cla im</w>
form ar</w>
Wh o</w>
si ck</w>
en f
cas ti
pen al</w>
Pr óxim
wel comed</w>
aqu el</w>
er y</w>
su ma</w>
pon iendo</w>
got ten</w>
fant as
qu í</w>
mi ty</w>
succ eed</w>
puer to</w>
modific aciones</w>
arm ed</w>
F lor
f es</w>
h úngar
ati n</w>
argu ments</w>
re ven
ackno wled
A ll</w>
in fer
don os</w>
exi gir</w>
Res earch</w>
rel ates</w>
prosper ity</w>
S ur</w>
deli ver</w>
limi tar</w>
p as</w>
egi as</w>
complic ated</w>
19 7
el o
Inv estig
fom ento</w>
hab ili
moder n
c ast
Jurí dicos</w>
brief ly</w>
previ ously</w>
exten sion</w>
rati fication</w>
N av
lead ership</w>
argu ment</w>
electri city</w>
afec tadas</w>
con fer
lead s</w>
fa ult</w>
aproxim adamente</w>
Jo e</w>
am as</w>
Liber al</w>
clar os</w>
associ ation</w>
Próxim o</w>
ur ban</w>
estrat egias</w>
publi shed</w>
NG Os</w>
cur i
a ks</w>
específic o</w>
oí r</w>
satis fied</w>
destin ados</w>
t een</w>
pa ying</w>
G lob
equilibr ado</w>
Ver des</w>
tí tulo</w>
estab as</w>
ec os</w>
mar avi
proceed ings</w>
S ing
es day</w>
Ash ton</w>
lic </w>
j amás</w>
ho pe
adv ice</w>
lad y</w>
destruc ción</w>
beli ev
man tenido</w>
ver sion</w>
congratul ations</w>
tend encia</w>
sem ej
3 7</w>
s cru
at aques</w>
I s</w>
er le</w>
cum pl
fulfi l</w>
li te</w>
de porte</w>
strat egi
bi enes</w>
a o</w>
br id
m ed</w>
ach ed</w>
pesqu era</w>
barri ers</w>
herman a</w>
converg encia</w>
e er</w>
vic ti
cu ant
shad ow</w>
acep tado</w>
Th urs
can cel
tr ack</w>
t ano</w>
p id
ti das</w>
Est abilidad</w>
posi te</w>
un fair</w>
pon erse</w>
re ds</w>
gen es</w>
AL DE</w>
o di
co decision</w>
Do ha</w>
sum mer</w>
al ej
intent ado</w>
ej ército</w>
p á
com pul
eed ed</w>
wri te</w>
inten ds</w>
acc es
ro g
interlocu tores</w>
dow n
gu id
becom es</w>
ebr a</w>
he u
I G
B en
advant ages</w>
simi lares</w>
z adas</w>
ju eves</w>
3 2</w>
per for
v es
artí culos</w>
instal aciones</w>
pre dic
emple os</w>
Fin ancial</w>
inten ciones</w>
materi als</w>
T ai
interpre tación</w>
ll en
pro ved</w>
I C
import aciones</w>
fortal ecer</w>
strategi es</w>
industri ales</w>
clari fy</w>
ad her
lí deres</w>
retras o</w>
in equ
refle ja</w>
main taining</w>
l ement</w>
A sí</w>
ar as</w>
deli tos</w>
ísi mo</w>
Bu eno</w>
on ado</w>
T A</w>
tiv ity</w>
contr a
exclu sion</w>
dist inc
exi sta</w>
indi ca</w>
segur amente</w>
dis pos
exis tir</w>
y as</w>
p ped</w>
fal si
isl and</w>
strength ened</w>
increment ar</w>
aplic arse</w>
converg ence</w>
So vi
gol pe
mark ed</w>
m end
sub mit</w>
em ed</w>
d an
L an
N ice</w>
mo ved</w>
Inter governmental</w>
ing l
d ará</w>
nego cios</w>
contribuy entes</w>
us ers</w>
ad mit</w>
sim ul
gan ado</w>
dis puesta</w>
go od
oper adores</w>
Thurs day</w>
M r
nom in
est ú
ch icas</w>
valu able</w>
ofer ta</w>
e ign
w o
pro ducir</w>
palest inos</w>
ide al</w>
s pread</w>
m p</w>
concili ation</w>
g el
pendi entes</w>
deser ve</w>
an es</w>
deb ating</w>
l ag
represent ación</w>
men o</w>
p ár
pro lifer
t ent
mostr ado</w>
Eng lish</w>
U d
li bro</w>
cre a</w>
I V</w>
ci gar
mé dico</w>
re vel
correc tamente</w>
Her z
é poca</w>
ast ro
cor r
sober anía</w>
materi as</w>
expect ativas</w>
follow s</w>
tex tos</w>
ar rest</w>
sover eign
tu vimos</w>
refle xión</w>
pro stitu
respec tive</w>
s ales</w>
lleg ó</w>
W here</w>
surpri sed</w>
tele vision</w>
on going</w>
m acro
ren unci
gr ant</w>
fenó meno</w>
servi r</w>
reconstruc ción</w>
altern ativas</w>
I D
re tro
pro ve
do g</w>
técnic o</w>
An n
sab ido</w>
i sol
W ow</w>
un ited</w>
W ash
su gar</w>
deb ajo</w>
res tr
gus to</w>
en ario</w>
técnic os</w>
contr acts</w>
gu il
h ey</w>
ac ted</w>
carr ying</w>
habit antes</w>
ti e</w>
der og
conduc ta</w>
oblig ados</w>
excep t</w>
senti miento</w>
aclar ar</w>
streng th</w>
re y</w>
larg ely</w>
L atin</w>
bigg est</w>
transport es</w>
M ag
Alli ance</w>
é p
Trans port</w>
m outh</w>
0 4
signific antly</w>
inc endi
fin ish</w>
mat ar</w>
os en</w>
tri al</w>
extr año</w>
ócr ata</w>
produc ing</w>
hund reds</w>
destin adas</w>
manif estado</w>
der echa</w>
in ess</w>
secre to</w>
acord ado</w>
Fundam ental</w>
ví n
re move</w>
depend encia</w>
accid ents</w>
Com o</w>
D o</w>
Protoco lo</w>
t ó
Wash ington</w>
b ús
c án
s í
et es</w>
co sta</w>
de o</w>
co ld</w>
cont emp
ju gar</w>
fron tera</w>
con duci
capaci dades</w>
li min
pres a</w>
ant emente</w>
abs ence</w>
Sch ul
int enta</w>
fe e</w>
su ici
sex o</w>
din ámi
const ante</w>
k il
investig aciones</w>
plan eta</w>
t emp
est able</w>
l á
as sum
gr y</w>
impuls ar</w>
innov ative</w>
Pat ten</w>
5 5</w>
coher ent</w>
si l</w>
urg ency</w>
funcion ar</w>
habit ación</w>
. ...</w>
L ord</w>
power ful</w>
ex pul
R O
au tor</w>
Investig ación</w>
est arán</w>
identi fy</w>
luc k</w>
com ité</w>
O s
compr ar</w>
par lamentos</w>
ay ed</w>
cam pos</w>
difficul ty</w>
v eg
pu sh</w>
ministr os</w>
Fis her
fu els</w>
am ing</w>
sovereign ty</w>
brev emente</w>
th i
ackno wledge</w>
stoc k</w>
T om</w>
C S</w>
dis pone</w>
in oc
conc esión</w>
un ity</w>
bec ame</w>
pri mary</w>
crédi to</w>
b es</w>
absolu te</w>
sel o</w>
a firma</w>
0 s</w>
e be</w>
Hung arian</w>
A S</w>
p ción</w>
he ading</w>
dai ly</w>
c ant
wa ke</w>
cifr a</w>
vel oci
gen é
op posite</w>
el se
volun t
compañ ía</w>
C 5</w>
f low
conveni ente</w>
déj ame</w>
pro secu
bu s</w>
hi cieron</w>
lead er</w>
con fron
Mi ke</w>
M os
canti dades</w>
Sol ana</w>
So li
P aul</w>
pre venir</w>
th row</w>
plant ear
w ood</w>
r ying</w>
ver ano</w>
speci es</w>
ac tivos</w>
T u
co f
refer ring</w>
sir ve</w>
nego cio</w>
T V</w>
transi tion</w>
iz quierda</w>
suffici ently</w>
victi m</w>
easi ly</w>
genu in
deser ves</w>
Mr s.</w>
M ay
some where</w>
hon our</w>
v áli
str ö
tr ain</w>
s low</w>
di mos</w>
m ía</w>
sal vo</w>
antigu os</w>
contribu ido</w>
ling ü
dispos al</w>
wi ll
Fisher ies</w>
recuer da</w>
alem án</w>
fun ny</w>
ini cio</w>
wonder ful</w>
activ ely</w>
N ig
inv est</w>
v ini
l los</w>
e y
signific ance</w>
é mi
Soci alista</w>
extr añ
ON U</w>
sup plement
4 00</w>
destruc tion</w>
prosper idad</w>
condem n</w>
uni form</w>
tu red</w>
h n</w>
parlament ario</w>
ve in
sugg ested</w>
afortun adamente</w>
depend s</w>
strö m</w>
Constitu tional</w>
encu entro</w>
ves sels</w>
abili ties</w>
near ly</w>
Ver heu
burocr acia</w>
qu ick</w>
trat ados</w>
ende av
ciudad anía</w>
OS CE</w>
peligro so</w>
asegur arnos</w>
M iss</w>
wor ried</w>
under taken</w>
intelig ente</w>
e ous</w>
identi fied</w>
H as</w>
wher e
He ads</w>
E ri
Com e</w>
G ol
al er
legi o</w>
prison ers</w>
li f
har dly</w>
produc en</w>
sinc er
ar my</w>
TH E</w>
restruc turing</w>
B ir
Nor thern</w>
lóg ica</w>
B ol
vol vi
ch osen</w>
bi laterales</w>
cerr ar</w>
ag ement</w>
u l</w>
D in
ast er</w>
simpli ficación</w>
bur g</w>
ach ing</w>
. U
neighb ours</w>
bús queda</w>
s an</w>
plu s</w>
Económi cos</w>
concentr ate</w>
c av
Verheu gen</w>
M m</w>
catástro fe</w>
ton el
v esti
nor te
L it
usu arios</w>
señ ala</w>
incre íble</w>
g ur
fig ura</w>
mun i
s ounds</w>
ac teri
profund amente</w>
usu ally</w>
ech es</w>
catástro fes</w>
Pu ede</w>
grad ual</w>
else where</w>
ve te</w>
e ira</w>
sal ida</w>
dre am</w>
bud gets</w>
direc to</w>
suffer ed</w>
amend ed</w>
reser va</w>
pu ta</w>
sc ep
fi le</w>
Bri tain</w>
S af
end emos</w>
senti r</w>
hom o
o dio</w>
á is</w>
tre at</w>
al mac
continú a</w>
AL E</w>
ab sten
dur ación</w>
cier re</w>
Gu in
wat ers</w>
nav eg
franc esa</w>
port es</w>
cil mente</w>
li s</w>
caracter ísticas</w>
fr ustr
in sul
int elec
el éc
unilater al</w>
loven ia</w>
reli eve</w>
Cor ea</w>
ass ess</w>
que za</w>
su red</w>
vi enen</w>
independi entes</w>
inter rup
recur so</w>
wh ite</w>
fuer tes</w>
Lon don</w>
des astre</w>
In forme</w>
prepar ation</w>
ess enti
estat ales</w>
norte americ
tar on</w>
c el</w>
ar íamos</w>
al tos</w>
esper an</w>
Cre es</w>
solu cionar</w>
sustain ability</w>
rec ti
l are</w>
v an
as -</w>
compul sory</w>
hol ders</w>
en jo
parti d
Soli dar
pr ag
par liament</w>
form an</w>
inmedi ata</w>
sig an</w>
highli ghted</w>
ch ann
determin e</w>
cu bri
s w
genuin ely</w>
div or
gro w</w>
K ur
din ner</w>
f it</w>
sch ed
sosten ibilidad</w>
op tions</w>
I n</w>
tradi ción</w>
veg et
n ine</w>
aére as</w>
inclu idas</w>
sh ing</w>
basi cally</w>
es en</w>
trag ic</w>
per e</w>
re pi
thin ks</w>
199 2</w>
indic ar</w>
sigui endo</w>
O C
y n
ne z</w>
deb idamente</w>
Zimbab we</w>
we ight</w>
r is</w>
a tribu
3 6</w>
resul ting</w>
enforc ement</w>
C al
des ir
ha gamos</w>
bre ak
est ados</w>
le er</w>
estim ados</w>
fres h</w>
vot os</w>
electri cidad</w>
C on</w>
negoti ation</w>
v is</w>
mas sive</w>
inspi r
du m</w>
ha gas</w>
ver a</w>
cal le</w>
ex ports</w>
lau gh
pi lo
b as</w>
E duc
requisi to</w>
con viene</w>
prohi b
compar ación</w>
ang ing</w>
di ag
an alizar</w>
p si
defici t</w>
c hap
li ked</w>
E mp
aw a
perfec to</w>
ab sor
adecu ados</w>
Cuán do</w>
comport amiento</w>
de a
necess arily</w>
inf anti
estratég ica</w>
autori zación</w>
trans ferencia</w>
est ábamos</w>
í menes</w>
ex ter
Con sum
ra ising</w>
V AT</w>
si ente</w>
correspondi entes</w>
2 .
st ed</w>
conc e
coll abor
wit n
cl assi
S om
consider s</w>
pa se</w>
requ ests</w>
categ oría</w>
mean ing</w>
d í
Schul z</w>
L et</w>
bel ong
perfor man
cust om
impres i
pre fi
pre ven
indic ated</w>
celebr ado</w>
comple ted</w>
horri ble</w>
adop tada</w>
- en</w>
Luxemb urgo</w>
Palest ina</w>
decir les</w>
we ak</w>
tradi tion</w>
Jap an</w>
Con go</w>
bor r
attemp ts</w>
sol di
en vis
ci elo</w>
spe eches</w>
tex ts</w>
Con gres
j </w>
it ch
un g</w>
sur vi
víctim a</w>
O N</w>
inst ancia</w>
jud ge</w>
parlament arios</w>
t ests</w>
ó ne
di z
i ed</w>
b lame</w>
E L
termin ado</w>
ori ental</w>
we alth</w>
Protoco l</w>
at ro
eci ó</w>
pu ll</w>
sci ence</w>
Jef es</w>
cur a</w>
interpre tation</w>
car bon</w>
Fin land</w>
tras lad
L ar
inter esa</w>
l eng
ent endi
é j
cul tiv
R os
H O</w>
R A
dist e</w>
par tly</w>
aut ó
ber g</w>
cau ght</w>
prepar ar</w>
antigu o</w>
apropi ado</w>
con tain</w>
tw enty</w>
ad ura</w>
ob ten
Sant er</w>
E res</w>
car bon
é se</w>
aliz ados</w>
IV A</w>
refer ente</w>
Col om
hor r
intern a</w>
avi ation</w>
conoc emos</w>
P IB</w>
g ada</w>
ski lls</w>
reduci do</w>
con vir
G DP</w>
s par
enfrent amos</w>
st abili
compe tent</w>
intel lec
asoci aciones</w>
Fisch ler</w>
r us
institu cionales</w>
discu tir</w>
regar ded</w>
porcent aje</w>
tori o</w>
acc eder</w>
utiliz an</w>
proc ur
tr ai
reglament ación</w>
bi ot
wid er</w>
B en</w>
p sy
recha zar</w>
Energ ía</w>
B ang
experi encias</w>
cum plan</w>
ab re</w>
B or
lin ks</w>
ac qu
in da</w>
mir ar</w>
em isión</w>
solici tado</w>
si ght</w>
wor thy</w>
back ground</w>
pa pers</w>
C at
t anta</w>
tim os</w>
plaz os</w>
come tido</w>
H a</w>
necesit as</w>
dist as</w>
or ador</w>
mani pul
A hora</w>
p ese</w>
A h
oblig ed</w>
propor tion
im plant
dispon emos</w>
a e</w>
carr era</w>
y ó</w>
mi d</w>
sem in
J ack
a fi
par o</w>
Secre tary</w>
pi dió</w>
é sa</w>
aport ar</w>
fi es</w>
gubernam entales</w>
est ando</w>
pu si
deb ía</w>
ci c
compens ación</w>
surpri se</w>
s ad</w>
great ly</w>
ic ans</w>
S en
du plic
c raft</w>
desaf ío</w>
Ali anza</w>
pre limin
vent ud</w>
salv ar</w>
am az
hab erse</w>
conserv ación</w>
neighbour ing</w>
negoci ar</w>
Fundam entales</w>
mis sed</w>
am or
J e
red und
demon ios</w>
tri bun
top ic</w>
laun ched</w>
scho ols</w>
Al to</w>
futur os</w>
neces ariamente</w>
fic ados</w>
medicin es</w>
ent en</w>
constitu te</w>
cam a</w>
con ex
ic h
az go</w>
Jap ón</w>
b y
invol ucr
que de</w>
appear ed</w>
st one</w>
id ly</w>
Pak istan</w>
v ic</w>
seri amente</w>
- I</w>
Consum er</w>
S K</w>
fai th</w>
1 1.
Bro k</w>
trag edy</w>
can cer</w>
reg ímenes</w>
S us</w>
Protec tion</w>
anu ales</w>
defici encias</w>
ad just
affec ts</w>
I N</w>
cumpli do</w>
pos sibilities</w>
+ </w>
fo ot</w>
wor ld
th anking</w>
sus cri
enorm emente</w>
científic a</w>
F I</w>
signific ativo</w>
essenti ally</w>
Emp loyment</w>
m ad</w>
estudi antes</w>
gh ten
s ha
sh ouldn</w>
explan ation</w>
Gre ens</w>
Belgi an</w>
efec tivo</w>
consider arse</w>
ver te</w>
sho wing</w>
stop ped</w>
tin y</w>
e .</w>
listen ing</w>
garanti za</w>
ti se</w>
E gy
di me</w>
aplic an</w>
inclu yen</w>
e th</w>
in dad</w>
appro xim
esti ons</w>
propor tion</w>
retir ada</w>
st ar</w>
mutu o</w>
focu sed</w>
est aremos</w>
deli ver
consider an</w>
mon t
Ver ts</w>
gr ía</w>
st ake</w>
consi gui
issu ed</w>
g ap</w>
Cuán to</w>
in adequate</w>
mid dle</w>
E R</w>
su sci
adop te</w>
ó p
p it
const ant</w>
hab ida</w>
direc tor</w>
laun ch</w>
main tained</w>
adap tación</w>
v encia</w>
transi tional</w>
ment ally</w>
pr ést
sp ite</w>
performan ce</w>
ap p
pu do</w>
Joh n
competi tiva</w>
un án
3 3</w>
bear ing</w>
sueñ o</w>
lech e</w>
conden a</w>
com partir</w>
wher eas</w>
Pu edes</w>
comprome tido</w>
de als</w>
musi c</w>
d ance</w>
mar ca</w>
s outh</w>
fair ly</w>
im pli
me z
in und
reli able</w>
reconstruc tion</w>
des car
sch em
utili zado</w>
estruc tural</w>
dist ancia</w>
Fin landia</w>
t ough</w>
inten tions</w>
as o</w>
cu ts</w>
re action</w>
claim s</w>
industri as</w>
dr es</w>
tem pr
L ab
S r
Presid entes</w>
ag encia</w>
re acción</w>
al ter
su itable</w>
garan tice</w>
des t</w>
199 0</w>
en za</w>
cumpl en</w>
í b
de pl
t aba</w>
play ers</w>
re place</w>
nu eve</w>
tic les</w>
dej ó</w>
bi o</w>
B SE</w>
C F
tr ág
consider aciones</w>
barr eras</w>
adverti sing</w>
raz on
po pu
s si
str essed</w>
mari do</w>
Ti ene</w>
explic ación</w>
pres cri
M i</w>
Mor oc
D ad</w>
ordin ary</w>
celebr o</w>
success fully</w>
In don
al ent
constitu cional</w>
vay an</w>
hop es</w>
as ing</w>
demu estran</w>
Kor ea</w>
Herz ego
Comun icación</w>
m ú
dic tam
bit ch</w>
export aciones</w>
refer én
no v
pri or</w>
EE .U
fav ourable</w>
as on</w>
con ec
gen oci
enter ed</w>
acc ur
world wide</w>
po der
G ra
J ames</w>
fre n</w>
be ef</w>
estadouniden ses</w>
re alista</w>
refer irme</w>
cha irman</w>
discu sión</w>
criteri o</w>
om a</w>
4 2</w>
Bus h</w>
agr ado</w>
empr ender</w>
conduc ted</w>
aci dad</w>
lle ve</w>
in ta</w>
cán cer</w>
P ública</w>
ter in
su fren</w>
E struc
Presid ents</w>
Pes ca</w>
di an</w>
rec all</w>
D anish</w>
3 4</w>
extre me</w>
Herzego vina</w>
a is
crí menes</w>
wor rying</w>
el e</w>
to ols</w>
ad mir
pi diendo</w>
par al
impres cindi
6 5</w>
qu ince</w>
gu es</w>
inform ado</w>
Lon dres</w>
est emos</w>
human idad</w>
hon est
remo ved</w>
exig encia</w>
tion ally</w>
phenom en
experi enced</w>
v amente</w>
soci eties</w>
detal le</w>
L ou
Mer cado</w>
su m</w>
enc ing</w>
estu ve</w>
any where</w>
maravi l
argu mento</w>
se at</w>
s mar
facili ties</w>
Po lish</w>
fi que</w>
sufri do</w>
li z
cu yos</w>
pu rely</w>
ic aciones</w>
time table</w>
hab lo</w>
Hun gría</w>
deb ated</w>
sou thern</w>
Ni za</w>
se amos</w>
thre ats</w>
3 8</w>
expl í
m esas</w>
see ks</w>
amenaz as</w>
Estruc turales</w>
stud ents</w>
lider azgo</w>
J ac
preci sa</w>
tant os</w>
le t
qu ote</w>
B él
diplom atic</w>
muri ó</w>
H ong</w>
Belgi um</w>
re mun
no tice</w>
excep tion</w>
E N
199 3</w>
autén tica</w>
sc and
ex ag
ex posición</w>
correspondi ente</w>
favor eci
Con su
mer ecen</w>
her it
celebr ación</w>
spec ul
profund a</w>
Represent ante</w>
vulner ables</w>
aco st
reconoci do</w>
B ál
Hung ary</w>
G UE</w>
A re</w>
obvi o</w>
hund red</w>
b ing</w>
er la</w>
ten ían</w>
e eing</w>
carbon o</w>
i ll</w>
co ast
addres sing</w>
muer tos</w>
proc es
cer can
adu an
sho ot</w>
Hel sin
b raz
b attle</w>
implic ations</w>
organ izar</w>
est án
Helsin ki</w>
thous and</w>
Th ey</w>
i k
appar ently</w>
it ud</w>
Christ mas</w>
A y
en ér
determin ado</w>
ne er
fabric antes</w>
a th
preocup es</w>
B ö
bo x</w>
posi tivas</w>
f li
ed s</w>
priv ada</w>
capí tulo</w>
hur ry</w>
open ness</w>
Ex ternal</w>
D eb
ar ticle</w>
organiz ada</w>
in sto</w>
ed as</w>
prospec ts</w>
Represent ative</w>
Austri an</w>
guarant eeing</w>
dese os</w>
remun er
e astern</w>
hubi ese</w>
Bél gica</w>
Gali leo</w>
Ex terior</w>
com eti
assi st</w>
under min
plani ficación</w>
peri fér
trad uc
deten ción</w>
fall s</w>
passen ger</w>
espec ul
firm ado</w>
de fec
enfr enta</w>
ess or</w>
K ong</w>
cab all
Li thu
In ternal</w>
dor mir</w>
vel ar</w>
F O
amend ing</w>
expen sive</w>
rati fied</w>
ist s</w>
inter no</w>
entr a</w>
schem es</w>
baj os</w>
equi pos</w>
- el</w>
ing ness</w>
ad y</w>
depen d</w>
exten sive</w>
am pi
h ang</w>
an un
all ing</w>
correc tly</w>
presid ent</w>
estric tas</w>
dis culp
activ amente</w>
utiliz ando</w>
territori os</w>
í s</w>
br ind
sho wed</w>
Saf ety</w>
bel ong</w>
s -</w>
mark eting</w>
i za</w>
po c
sym pa
demand ing</w>
I z
i ción</w>
nu tri
cl av
frag ment
a x</w>
z en</w>
stri ke</w>
cá l
I L
ir landés</w>
confi ar</w>
aplic able</w>
aver igu
S to
fru it</w>
est e
dispon ible</w>
est er</w>
empres arial</w>
presupuest arios</w>
rit mo</w>
lí n</w>
alem ana</w>
F ood</w>
connec ted</w>
dej e</w>
es sions</w>
Pak istán</w>
int eg
observ ar</w>
cier ra</w>
sav ings</w>
lo sing</w>
mat ed</w>
materi ales</w>
doub ts</w>
terr or</w>
ain ing</w>
will ingness</w>
ro n</w>
poor est</w>
prof it</w>
st em</w>
ber t</w>
Par liam
Con serv
consider ado</w>
ver á</w>
to x
str ange</w>
a .m.</w>
dec ades</w>
excep ciones</w>
recuper ar</w>
ari se</w>
S ir</w>
bi le</w>
tri ste</w>
po bre</w>
sur round
ac qui
end es</w>
tribun ales</w>
ocurri ó</w>
desarroll ado</w>
remain ing</w>
U .</w>
solici tar</w>
S im
Rob ert</w>
con ducir</w>
in dem
ing en
ren di
small er</w>
ap s</w>
sk y</w>
gr os</w>
T ony</w>
prim as</w>
phenomen on</w>
taxpay ers</w>
l ados</w>
ativ amente</w>
tom ando</w>
tr e</w>
sh e
pre fer</w>
W omen</w>
is tic</w>
it as</w>
ambi ental</w>
Bre taña</w>
privi leg
I II</w>
deep ly</w>
Cap tain</w>
L as</w>
ver lo</w>
ke ts</w>
aument ado</w>
b año</w>
ti ll</w>
ur as</w>
defini tivamente</w>
campa ig
sti mul
capit ales</w>
adecu adamente</w>
inclu yendo</w>
ambici oso</w>
b ound</w>
cad ena</w>
te la</w>
geo gráfic
mundi ales</w>
limi tado</w>
Est onia</w>
physi cal</w>
bl an
relativ ely</w>
Tam pere</w>
neg ativo</w>
par ci
destin ado</w>
a x
ag ra
no ticia</w>
Es per
shap e</w>
en se</w>
resist encia</w>
where by</w>
caf é</w>
increas es</w>
je ta</w>
Sco t
ha ir</w>
be gan</w>
referén dum</w>
im porte</w>
á ticamente</w>
sear ch</w>
war ning</w>
respec ts</w>
com pon
ca í
al leg
accord ingly</w>
Es to</w>
Blan co</w>
fi able</w>
dispu te</w>
compe te</w>
equ it
M aj
ez as</w>
modi fied</w>
integr al</w>
pu ts</w>
H ome</w>
der se</w>
bus ca</w>
aband onar</w>
prof its</w>
all s</w>
abo gado</w>
J en
exten ding</w>
J ar
J im
es pal
sa la</w>
emo st</w>
inclu ya</w>
er o
tas as</w>
for emost</w>
con fu
constitu ción</w>
cer ebr
af ford</w>
scar ed</w>
declar ed</w>
volu men</w>
ocupar se</w>
sol ely</w>
ag ente</w>
car acteri
gover ning</w>
compet ente</w>
S ad
gi e</w>
quer ría</w>
rap idly</w>
mill ón</w>
lear ned</w>
silenci o</w>
reestructur ación</w>
gre en
neg ativa</w>
v </w>
centr es</w>
s ending</w>
tri bunal</w>
podr ías</w>
Mon ten
tr adu
sec tion</w>
empres arios</w>
an i</w>
satisfac tion</w>
equilibr ada</w>
cum ple</w>
ge ted</w>
nation als</w>
m era</w>
T ime</w>
escap e</w>
atis ation</w>
Jes us</w>
esper anzas</w>
pens ado</w>
consider ations</w>
Par t
ou red</w>
tex </w>
Hen ry</w>
di visión</w>
4 3</w>
implic ados</w>
expli ci
d t</w>
harm ful</w>
hol ds</w>
Ber lin</w>
deli to</w>
pati ent</w>
bel ow</w>
no ise</w>
conex ión</w>
telecom un
Bla ir</w>
nam es</w>
avi ación</w>
I M
clar ity</w>
cont actos</w>
al ar
religi on</w>
St at
estrech amente</w>
avi ón</w>
atori as</w>
britá nicos</w>
regul ated</w>
veloci dad</w>
on el</w>
audi ovi
prepar ado</w>
no tic
j er</w>
consider ablemente</w>
ve a</w>
N O
W </w>
i red</w>
Au tor
adap t</w>
inevit able</w>
achiev ement</w>
S ha
bureaucr acy</w>
loc ation</w>
sal arios</w>
enci ales</w>
b oca</w>
dirig ida</w>
h am</w>
H on
stre et</w>
ep id
destro y</w>
l as
segu ida</w>
communic ations</w>
refer s</w>
unanim ously</w>
consider ably</w>
dictam en</w>
hu bier
manufactur ers</w>
Mad rid</w>
ú car</w>
d less</w>
ignor e</w>
deci dió</w>
Vice presidente</w>
contro lled</w>
cri ses</w>
u de</w>
Económi ca</w>
comerci alización</w>
dem ócratas</w>
su presión</w>
pren eur
Feder al</w>
contribu ye</w>
si te</w>
agrad able</w>
NG L</w>
intellec tual</w>
4 9</w>
cer e
qui et</w>
un necessary</w>
hy po
0 .
min i
inv ite</w>
environ mentally</w>
cic lo</w>
tar jeta</w>
inv ent
o le</w>
luc ky</w>
1 ,
signific ativa</w>
kin ds</w>
ti a</w>
ech nolog
who a</w>
in scri
s son</w>
tuvi eron</w>
12 .00</w>
o par
ma vera</w>
ag on
ambi gu
re au</w>
M y
pen sions</w>
hand le</w>
M ary</w>
construc tiva</w>
Vi et
im pe
relacion ado</w>
p hi
bl anco</w>
relativ amente</w>
mater n
destac ado</w>
r ent
Ma x</w>
~ </w>
de di
tragedi a</w>
D ani
or ar</w>
especi es</w>
repe tir</w>
Ci vil</w>
fin ished</w>
ed or</w>
is la</w>
absolu ta</w>
I S
eng age</w>
ti le</w>
m ap</w>
ofici ales</w>
dol or</w>
pe le
tom en</w>
com for
niñ a</w>
Au th
Mon etarios</w>
Tim or</w>
bro ken</w>
minist er</w>
at or
vincul ante</w>
tant as</w>
cho col
gr anting</w>
ofrec en</w>
Monten egro</w>
gi endo</w>
altern ativos</w>
encour aged</w>
dur a</w>
conc ede</w>
dirig entes</w>
A T
inter institutional</w>
har m</w>
gol pe</w>
p ho
proporcion a</w>
compet entes</w>
satisfactori a</w>
T hom
min oría</w>
st ance</w>
v ar
in suficiente</w>
ob ser
transfronteri za</w>
restric ted</w>
p acto</w>
com is
con vention</w>
su ena</w>
enab ling</w>
co incid
ahor ro</w>
sóli da</w>
fre cu
mé dicos</w>
cont amos</w>
cal m</w>
s cr
ci encia</w>
const antemente</w>
con vi
inqui e
chec ks</w>
e bre</w>
B il
pro v
interes ados</w>
ver emos</w>
bo y
ar ch
ac tores</w>
a isl
ti g
geograph ical</w>
M y</w>
rean ud
pat ente</w>
T ou
T here</w>
Presu puest
vi ll
every where</w>
J ean</w>
tuvi era</w>
tur ns</w>
graf ía</w>
Uni ver
Resolu ción</w>
pre val
entre preneur
contr act</w>
emphasi sed</w>
S il
cro s
E ar
acer vo</w>
H a
cab al
Autor idad</w>
succ eeded</w>
hac ía</w>
per ci
i as</w>
compañ eros</w>
idi ota</w>
debati do</w>
graph ic</w>
declar ado</w>
EE B</w>
est aré</w>
c alific
provi sional</w>
tonel adas</w>
op pose</w>
de tener</w>
for gotten</w>
Trans portes</w>
estableci dos</w>
hici mos</w>
ho sti
mencion a</w>
do ssi
n ación</w>
intelec tual</w>
histor ical</w>
wee k
án donos</w>
Bál tico</w>
di gas</w>
new s
regrett able</w>
enfrent an</w>
w arr
ar anc
examin ed</w>
Ac ción</w>
cu ad
rar o</w>
comparti mos</w>
adop tó</w>
jurídic as</w>
pon gan</w>
reci miento</w>
Den mark</w>
solici tudes</w>
Par is</w>
der ro
Ber lín</w>
bes ides</w>
cof fee</w>
and y</w>
di str
viol ation</w>
we ar</w>
az úcar</w>
edifici o</w>
cooper ar</w>
fin alidad</w>
P re
par ar</w>
R ome</w>
AR E</w>
Ch er
A SE
or able</w>
atr ap
fortal ecimiento</w>
shar ing</w>
logr o</w>
pro mu
bloc k</w>
est rel
legitim acy</w>
protoco l</w>
bási camente</w>
esp aci
ori </w>
ser vir
ju bi
b le
herit age</w>
dec lare</w>
per don
gi ó</w>
K al
candid ato</w>
recib en</w>
_ </w>
esti mated</w>
contribu ted</w>
mar ítimo</w>
acog ida</w>
safe guar
comple jo</w>
on to</w>
fle et</w>
pri sión</w>
Din amar
end an</w>
fur </w>
histór ico</w>
hist ori
N ational</w>
britá nica</w>
infanti l</w>
air lines</w>
Y our</w>
reflec ted</w>
EE.U U.</w>
mú sica</w>
post al</w>
oun d
poster ior</w>
estratég ico</w>
foun ded</w>
tar geted</w>
ma il</w>
Ser vi
e able</w>
just amente</w>
españ ol</w>
ki lling</w>
in vern
ro ads</w>
raci smo</w>
telecomun icaciones</w>
con cier
vein te</w>
Par lamentos</w>
enh ance</w>
tan gible</w>
you th</w>
escu elas</w>
man t
poten cia</w>
1 50</w>
u la</w>
r icos</w>
compr endo</w>
applic ations</w>
pa tr
go d
4 4</w>
thor ough</w>
s qu
gené ticamente</w>
tion ary</w>
llev ando</w>
pro mp
previ a</w>
fe els</w>
legiti midad</w>
s ch</w>
ir nos</w>
quer ida</w>
applic able</w>
inten sive</w>
dynam ic</w>
c en</w>
recur rir</w>
under tak
wat ching</w>
h í
fundament almente</w>
fe et</w>
bar cos</w>
Dinamar ca</w>
ur ch</w>
Fr an
b loo
es h</w>
aero puertos</w>
s low
Part nership</w>
reserv ations</w>
EC B</w>
pl ays</w>
dep th</w>
a is</w>
cour ts</w>
th care</w>
Protec ción</w>
migr ación</w>
last ing</w>
vie wed</w>
mi stas</w>
for est</w>
bo ss</w>
spr ing</w>
K inno
Ud .</w>
fic a</w>
destro yed</w>
atur es</w>
et c</w>
fin anced</w>
sub jects</w>
tom </w>
ex o</w>
progres i
prepar ados</w>
bl ing</w>
v on</w>
estat al</w>
ver de</w>
H ab
organ ismo</w>
trabaj a</w>
Soci alists</w>
per ro</w>
ro ll</w>
peligro sas</w>
bar co</w>
buil dings</w>
I T
aport ación</w>
leg almente</w>
conver tir</w>
ta ste</w>
españ ola</w>
S am
ro pa</w>
G in
complain ts</w>
3 9</w>
heal thcare</w>
at edly</w>
posi blemente</w>
an ni
err adic
P O
Em ple
cor regi
administr ativa</w>
Auth ority</w>
R el
acep ta</w>
Fron tex</w>
M ur
so ld</w>
Kinno ck</w>
rest ore</w>
minist er
inno cent</w>
Amer icans</w>
v ast</w>
desir able</w>
fin anzas</w>
it ario</w>
en ship</w>
st ation</w>
he ads</w>
almac en
et ario</w>
plan et</w>
imprescindi ble</w>
el led</w>
M ex
Fr id
constitu tes</w>
órgan o</w>
ífic o</w>
pro long
ri endo</w>
perifér icas</w>
proc essing</w>
ur gent
sens ación</w>
conv encer</w>
ne gro</w>
undertak ings</w>
bir th</w>
eng aged</w>
Doc tor</w>
K el
th res
consequ ence</w>
f loo
four th</w>
comunic aciones</w>
in ar</w>
negoti ated</w>
negoti ate</w>
Ob je
restr ing
raci sm</w>
entr en
um s</w>
l ap
rec al
B ec
apren diz
ban co</w>
es con
Mon etaria</w>
Li b
Slov ak
Consu mid
ten íamos</w>
lo ved</w>
famili ares</w>
represent ation</w>
pelí cula</w>
i .
maldi ta</w>
hosp it
pár raf
al tura</w>
w ast
al ed</w>
bi endo</w>
et apa</w>
compren sible</w>
ahor r
Tai w
Po dría</w>
t ance</w>
ra in</w>
Emple o</w>
s amente</w>
und os</w>
fr an
apli que</w>
B raz
organiz ado</w>
ni um</w>
aprendiz aje</w>
st at</w>
affec ting</w>
cár cel</w>
fun cione</w>
sanit arios</w>
Com mon</w>
ti enda</w>
offer ing</w>
respal dar</w>
simpli fication</w>
emb ol
com mit</w>
fij ar</w>
pi es</w>
s ought</w>
dra w
lí der</w>
f at
caj a</w>
der ly</w>
terrori sta</w>
o li
cre ates</w>
Gro w
tam año</w>
deriv ados</w>
deci sivo</w>
ocup ado</w>
flo ta</w>
a fuera</w>
Secre tario</w>
red acción</w>
ut most</w>
ministr o</w>
landes es</w>
sever e</w>
cor re
pi ed
- la</w>
win do
inv ited</w>
consecu ción</w>
pro mesas</w>
ab led</w>
ol der</w>
supplement ary</w>
tw ice</w>
As soci
P N
competen ces</w>
i. e.</w>
celebr ará</w>
uro pe
invern adero</w>
b and
identi ficar</w>
al li
facili t
apo logi
5 0
coll ap
urgent emente</w>
import antly</w>
citiz enship</w>
vi gente</w>
ú tiles</w>
vehic le</w>
propon go</w>
lo ca</w>
aqui a</w>
detec tive</w>
less ons</w>
ou d</w>
p an</w>
man ej
aceler ar</w>
ig a</w>
autó nom
puer tas</w>
ta .</w>
profun do</w>
descri be</w>
ear ing</w>
st os</w>
br ica</w>
Ric hard</w>
ar chi
combus tibles</w>
unfortun ate</w>
Mon ti</w>
se urope
5 1</w>
incre di
B E
pensab a</w>
ob tained</w>
du m
lov aquia</w>
lóg ico</w>
en ví
ai ls</w>
polític amente</w>
sett lement</w>
present ing</w>
electró nico</w>
arri ved</w>
F err
tr ans</w>
Bud getary</w>
ter se</w>
D al
íco la</w>
confirm ar</w>
auth or</w>
S ou
hi de</w>
f ar
acc esi
vis ado</w>
bat alla</w>
Grow th</w>
horizon tal</w>
le al</w>
expl ained</w>
incorpor ated</w>
es cas
ob ras</w>
simpli ficar</w>
carre teras</w>
green house</w>
entu sias
interven e</w>
employ ers</w>
reiter ate</w>
suspend ed</w>
diab los</w>
Har ry</w>
post pon
regar dless</w>
controver si
norm almente</w>
tre n</w>
At lantic</w>
ac e
Bur ma</w>
cha in</w>
sup pose</w>
iz ation</w>
lán tico</w>
man tenga</w>
g a
sospec ho
Can ad
terrori sts</w>
n am</w>
ri queza</w>
co c
evid ent</w>
su pr
sent encia</w>
t una</w>
refuer zo</w>
bureaucr atic</w>
ent ren</w>
acep tables</w>
ri di
for e
mis sion
on er</w>
enseñ anza</w>
un k</w>
Liber tades</w>
i ores</w>
d añ
hope fully</w>
ar do</w>
interes adas</w>
pro cu
ami ga</w>
administr ativos</w>
gu ards</w>
perman ecer</w>
capit án</w>
Ma ur
C ari
exclu ded</w>
sh r
pl at
oblig ado</w>
occur red</w>
combin ed</w>
ti di
sexu ales</w>
pre gn
applic ant</w>
sugg estions</w>
h r
qu em
sec und
plac ing</w>
wor ding</w>
ali </w>
v acc
co w</w>
J ust</w>
in k
Nig eria</w>
draf ting</w>
constitu ir</w>
bos ques</w>
diri gido</w>
w all</w>
refu se</w>
sh op</w>
pri mavera</w>
Canad á</w>
report ed</w>
elimin ate</w>
asign ación</w>
indic adores</w>
aliz ation</w>
dirig idas</w>
Parliam entary</w>
beli ef</w>
ár amos</w>
consolid ación</w>
posteri or
ar re
ab usos</w>
Ad ministr
vir us</w>
extraordin ary</w>
chocol ate</w>
guil ty</w>
Pro f
compren sión</w>
sucedi do</w>
wel comes</w>
cl asi
W ar</w>
Euro stat</w>
declar ations</w>
cover s</w>
é u
admi tir</w>
credi ble</w>
be at</w>
Bu reau</w>
ambi tion</w>
dis abled</w>
pec es</w>
convier ta</w>
or ita</w>
le aves</w>
pertin entes</w>
reflexi onar</w>
tradi cionales</w>
Ten go</w>
pér didas</w>
L eb
preser ve</w>
ill ance</w>
gi o</w>
S IS</w>
deb a</w>
ap re
ar ru
an ese</w>
il ing</w>
Sr ta.</w>
indic ado</w>
religi ón</w>
op t</w>
listen ed</w>
apru ebe</w>
de por
bier to</w>
consul tas</w>
im age</w>
c ement</w>
intro du
T or
dij eron</w>
gener aciones</w>
formul ado</w>
r ace</w>
ill ustr
edifici os</w>
dar k</w>
Can ada</w>
out standing</w>
Est at
promis es</w>
ain s</w>
p ant
contrat ación</w>
for es
ten s</w>
j ar
fe wer</w>
repe atedly</w>
incen tives</w>
w age</w>
B CE</w>
requi eren</w>
candid ates</w>
aplic ado</w>
justi fy</w>
preocup ante</w>
pa trimonio</w>
tribu te</w>
air craft</w>
Colom bia</w>
ir lo</w>
der ing</w>
construc tivo</w>
dres s</w>
al ong
ir landesa</w>
Presupuest ario</w>
E N</w>
sav ing</w>
je opar
pu de</w>
par ad
tar lo</w>
w eren</w>
esc ena</w>
t í</w>
estadouniden se</w>
protoco lo</w>
strugg le</w>
swe et</w>
jo int
mer cur
war m</w>
Direc tor</w>
ag ot
pedir le</w>
il la</w>
ases ino</w>
s n
recom mend</w>
vier nes</w>
id s</w>
el u
ap lau
Co operation</w>
ayud ará</w>
los ses</w>
dead line</w>
com parte</w>
permi t</w>
emp ty</w>
extranj ero</w>
mun ic
co ali
dificul tad</w>
Associ ation</w>
ru ido</w>
sucedi ó</w>
excep tional</w>
di dos</w>
compu ter</w>
esti lo</w>
surve illance</w>
along side</w>
E co
concentr ación</w>
con sejo</w>
P H
alloc ation</w>
L ef
em pu
we ir
tap e</w>
ab ast
inter institucional</w>
llev ó</w>
expen se</w>
itali ano</w>
bi ológ
desarroll ados</w>
des esper
im port</w>
com ings</w>
un employed</w>
e holders</w>
eventu ally</w>
ferrovi ario</w>
bel ga</w>
Indon esia</w>
in mun
ron da</w>
larg er</w>
de le
rid í
B lo
a sust
col or</w>
cu entan</w>
de posi
collec tion</w>
utili za</w>
in e
prospec t</w>
po t
super fici
decep cion
f ly</w>
O U
tro ops</w>
fir mar
liber ación</w>
pacífic a</w>
sur a</w>
A D
lleg an</w>
fall ing</w>
a parece</w>
sol ved</w>
i lu
dist into</w>
recor tes</w>
to c
ra w</w>
N ei
f ór
smar t</w>
ju gu
Slovak ia</w>
tu m
eth ical</w>
prepar ations</w>
rail way</w>
simi lar
Ac t</w>
20 15</w>
nom bres</w>
nor th</w>
ic en</w>
combus tible</w>
sol dados</w>
d arse</w>
dis appointed</w>
por ters</w>
h an
opti mis
joint ly</w>
hel p
Guin ea</w>
W e
ver siones</w>
I m
primer as</w>
Ar ab</w>
sti pul
Mon day</w>
t ante</w>
f ell</w>
T he
dar les</w>
aprob adas</w>
reflec ts</w>
ro de
O p
t emos</w>
qu ina</w>
diri gir
tran seurope
encamin adas</w>
ot os</w>
mar ine</w>
os cur
ech ar</w>
short comings</w>
es fera</w>
equivoc ado</w>
clo sure</w>
G M
w ai
Es lovaquia</w>
tri p</w>
dea ths</w>
ferrocarri l</w>
en ko</w>
caus ing</w>
tem per
ton nes</w>
Re port</w>
T uni
mu estran</w>
per cent
ob o
econom ically</w>
destin ada</w>
&apos; S</w>
educ ational</w>
d ying</w>
alis ing</w>
Mi lo
Viet nam</w>
por no
se pa</w>
uni forme</w>
ing redi
form ation</w>
resid encia</w>
adop ten</w>
produ zca</w>
tre aties</w>
particip antes</w>
sh ares</w>
inver s
del ays</w>
í voc
moderni zación</w>
herrami enta</w>
rou te</w>
autén tico</w>
tain s</w>
ambi ción</w>
4 7</w>
civili an</w>
repi to</w>
avan zado</w>
tr end</w>
ru m
under line</w>
tack ling</w>
I F
li ability</w>
S P</w>
fr en
4 1</w>
z z
uni que</w>
enh anced</w>
se vic</w>
op ino</w>
repe ated</w>
armon iz
w ed
acqu is</w>
particip ado</w>
ro ots</w>
trans acciones</w>
transmi tir</w>
bási cas</w>
transat lantic</w>
R en
a zar</w>
indic ate</w>
rel ate</w>
g ee</w>
debati mos</w>
S pe
suppli es</w>
at re
per cep
dri vers</w>
discre p
shor tly</w>
expres sing</w>
8 5</w>
revi sed</w>
st ages</w>
mont ón</w>
bru tal</w>
mo tions</w>
ob tenido</w>
tro pas</w>
Fr att
enc anta</w>
lun es</w>
so ph
poli cial</w>
import ación</w>
cli entes</w>
Ali ment
conserv ar</w>
s ports</w>
ri de</w>
gesti onar</w>
fom ent
quot a</w>
blu e</w>
su spi
ang er</w>
cont acts</w>
ad eros</w>
er no</w>
é tico</w>
Jim my</w>
per judic
diver tido</w>
dar es</w>
fil m</w>
is tics</w>
inf lation</w>
jo ined</w>
en thu
char ac
maldi to</w>
Bob </w>
incor rec
inter oper
sav ed</w>
regi ster</w>
pat ent</w>
Fratt ini</w>
resul ted</w>
qui eras</w>
re tain</w>
cu las</w>
gü enza</w>
or ous</w>
no table</w>
inici ado</w>
accoun t
recon oz
n ó
Qu estion</w>
Bi ll</w>
Sovi et</w>
Frid ay</w>
de ly</w>
peri ods</w>
ad era</w>
complic ado</w>
draf ted</w>
desarro llar
approxim ately</w>
ti s</w>
cul tivo</w>
us an</w>
pa ir</w>
answ ered</w>
fá cilmente</w>
par all
bi lle
reser ve</w>
trans actions</w>
cu tting</w>
mar ri
si go</w>
sugg estion</w>
Mar ru
boo st</w>
found ations</w>
air ports</w>
fem ale</w>
cover ing</w>
senci llo</w>
ingl és</w>
w ind</w>
l on
4 6</w>
broad er</w>
condem ned</w>
wid es
boo ks</w>
f an
recei ving</w>
cor re</w>
prest ación</w>
su eca</w>
c é
tendr é</w>
d éc
mist akes</w>
elev ados</w>
wides pread</w>
mediterráne a</w>
tor ture</w>
W all
de grad
threaten ed</w>
S oy</w>
cle an
cho ices</w>
explic aciones</w>
S har
integr ado</w>
bo at</w>
li bre
m us
sc ene</w>
semej ante</w>
bus y</w>
ma siva</w>
Lef t</w>
divid ed</w>
Consumid or</w>
o we</w>
telecom munic
alific ations</w>
ai rs</w>
apli quen</w>
fund ed</w>
categ ory</w>
fuer an</w>
so cav
inf lación</w>
pesqu ero</w>
resul tan</w>
B as
gr ab
under mine</w>
débi l</w>
w ater
cru ci
V ol
Marru ecos</w>
satisfac er</w>
drin king</w>
perio distas</w>
priv ados</w>
pre vista</w>
K ing</w>
retras os</w>
protec cion
k ur
ri sing</w>
gradu ally</w>
agre es</w>
warm ly</w>
perd ón</w>
li ved</w>
estuvi era</w>
pat entes</w>
S ah
ab uso</w>
logr os</w>
fre ely</w>
Gen eva</w>
pag a</w>
J im</w>
ér co
ac tor</w>
mu la</w>
0 1</w>
p ical</w>
esper aba</w>
judg ment</w>
A dam</w>
Moroc co</w>
l ingu
asu mi
fi xed</w>
pre mat
déc adas</w>
Co operación</w>
presid enta</w>
help ful</w>
propon emos</w>
penal ties</w>
inter nos</w>
contribu irá</w>
pen sion
present ation</w>
ri ty</w>
soci o
with draw</w>
ul tim
parec ía</w>
N a
EM U</w>
gi es</w>
C ot
en io</w>
expedi ente</w>
com posición</w>
empe zando</w>
. 30</w>
fu ese</w>
diver g
histór ica</w>
Cul ture</w>
protec tion
Islam ic</w>
im posición</w>
ear th</w>
su ya</w>
wi dely</w>
conv ince</w>
err óne
sig ns</w>
ser ia</w>
contribu ciones</w>
n ish</w>
dec ent</w>
ampli amente</w>
empe z
lo sa</w>
revi ste</w>
B I</w>
viaj ar</w>
científic o</w>
res altar</w>
Lit u
Jo int</w>
viol ent</w>
in sufficient</w>
car gas</w>
Gre at</w>
inform aciones</w>
envi ado</w>
débi les</w>
D anu
án sito</w>
dist ance</w>
soli d</w>
Ale x</w>
m atic</w>
diri gir</w>
favor ecer</w>
m bo
g ay</w>
ocup ación</w>
ei j
ev </w>
bot tom</w>
l t</w>
Dem ócrata</w>
z aciones</w>
Wat son</w>
co di
acep tación</w>
mat ch</w>
Ar men
di ty</w>
soldi ers</w>
Clar o</w>
prove edores</w>
difer enci
pas sing</w>
frequ ently</w>
ro te</w>
siv os</w>
habit ual</w>
Gin ebra</w>
respe tu
ID S</w>
des man
radi o
plante an</w>
coinci do</w>
E gi
be gun</w>
gener ations</w>
fij ado</w>
ar ries
regul ate</w>
bl ind</w>
ref used</w>
ti red</w>
similar ly</w>
se t
sorpr end
for o</w>
s pli
un certainty</w>
p to</w>
colabor ar</w>
b adly</w>
di vision</w>
Litu ania</w>
t ej
Lithu ania</w>
in her
st airs</w>
à </w>
cri stianos</w>
propag anda</w>
lo -</w>
tex tiles</w>
EC HO</w>
am ed</w>
b low</w>
co loc
integr idad</w>
we b</w>
utili dad</w>
direc ted</w>
leg ítim
Soci ales</w>
sh oc
qu é
palest ino</w>
jui cios</w>
b ought</w>
ser ían</w>
com entar</w>
Egy pt</w>
D anny</w>
dedic ado</w>
op ho
Ind us
mejor ado</w>
du de</w>
enthu sias
enti dades</w>
fic aciones</w>
law yer</w>
cas t</w>
S ta
gar se</w>
sh ame</w>
prohi bir</w>
w rote</w>
ul tra
collabor ation</w>
d amente</w>
Palestini ans</w>
pri sa</w>
estable zca</w>
al ing</w>
resi de</w>
ís tico</w>
jo ining</w>
dis capacidad</w>
Gu ant
p esti
ve terin
gener ar</w>
ni er</w>
incen tivos</w>
sor presa</w>
exig en</w>
tr ánsito</w>
sinc ero</w>
X X
T o</w>
Serv ice</w>
Milo sevic</w>
reci bir
posterior mente</w>
j ar</w>
hop ed</w>
llam o</w>
ac tors</w>
ac os</w>
A ustr
g am
conveni os</w>
bri ll
ak is</w>
dre w</w>
li stas</w>
respon de</w>
franc eses</w>
refi eren</w>
dict ator
chem ical</w>
gr as
pun ish
ci ento</w>
adel ant
z o
solici tantes</w>
Ch eca</w>
supr an
satisf echo</w>
tur co</w>
b ag</w>
con i</w>
p act</w>
conoc en</w>
consider ables</w>
n ur
explo taciones</w>
si tes</w>
é ticos</w>
sig ning</w>
fin ances</w>
19 6
cubri r</w>
unanim ous</w>
stric tly</w>
ambi entales</w>
car tas</w>
ex puesto</w>
fas hi
5 6</w>
an aliz
dic </w>
ec ological</w>
ll ate</w>
cas h</w>
resum en</w>
específic amente</w>
ho gar</w>
ini o</w>
relacion ada</w>
cri sti
journ alists</w>
ir regular
qu alifications</w>
mínim as</w>
sacri fic
privi legi
Estat uto</w>
amaz ing</w>
6 00</w>
m ere</w>
respe ten</w>
mu s</w>
si én
demo graphic</w>
distin ta</w>
Bol k
M esa</w>
har án</w>
desman tel
D éj
T u</w>
ánd ome</w>
des pier
inter cambios</w>
h at
crimin ales</w>
le j
procu rement</w>
N ot</w>
present an</w>
pri sion
do ce</w>
indic ators</w>
aqui </w>
Y ear</w>
f light</w>
N acional</w>
incendi os</w>
bus car
Mu jer</w>
mode los</w>
depend ence</w>
bro ke</w>
b ón</w>
bási ca</w>
Co sta</w>
A IDS</w>
me tro</w>
au menta</w>
pe lo</w>
st ations</w>
Egi pto</w>
bási co</w>
fir me
t bol</w>
wit ness</w>
tar án</w>
observ ed</w>
realiz ando</w>
ari </w>
occur </w>
signific ado</w>
Ale x
llev ará</w>
tom amos</w>
recha zado</w>
c ensur
mo bile</w>
in ser
it ems</w>
V E</w>
propor ción</w>
T e
for give</w>
el derly</w>
firme za</w>
am end</w>
bi om
peligro sos</w>
ne o
ro c
ru mb
aboli tion</w>
Mu y</w>
weir d</w>
presid encia</w>
contr ato</w>
coordin ate</w>
er ti
pri me</w>
inc iner
Par lament
p la</w>
out set</w>
person nel</w>
pesti ci
compani ed</w>
T odo</w>
dar é</w>
ac companied</w>
St e
ent ra
automó viles</w>
c end
popul ations</w>
brid ge</w>
Al g
acces sible</w>
O ficina</w>
o th</w>
C an</w>
14 9</w>
so l</w>
neces sity</w>
telecommunic ations</w>
li ke
min as</w>
Cul tura</w>
bir th
Declar ación</w>
n ar
co br
identi ficación</w>
J ane</w>
def ending</w>
abord a</w>
desempeñ a</w>
docum ent
sincer ely</w>
extre ma</w>
pres sing</w>
Sar ah</w>
au d
consi d
hel ps</w>
inter governmental</w>
W ed
hu m
inc ur
cion almente</w>
R ed</w>
expres a</w>
promot ed</w>
M ier
c ero</w>
regres o</w>
re habili
demonstr ates</w>
Tou rism</w>
J </w>
ban king</w>
alim enti
cu yas</w>
soci al
ob serve</w>
aliment ación</w>
sí mbo
di sta</w>
AC H</w>
se in</w>
et te</w>
movi mientos</w>
P res
D im
acab amos</w>
g ust</w>
or ders</w>
están dares</w>
tre mend
ti erras</w>
d are</w>
wher ever</w>
prevent ed</w>
que ta</w>
soci alistas</w>
ari ties</w>
ve an</w>
prést amos</w>
priv adas</w>
di os</w>
estig os</w>
en tiende</w>
cul pe</w>
form ed</w>
ver güenza</w>
cre ando</w>
a si</w>
M om</w>
quer er</w>
S an
preguntar le</w>
ve y</w>
Mu g
l an</w>
pr estado</w>
U R
3 .
st ep
R on
presi ones</w>
se emed</w>
i ra
segu iremos</w>
di era</w>
den ly</w>
S T
hab íamos</w>
C recimiento</w>
p ida</w>
esc ánd
sh oul
úl ti
dinámi ca</w>
es encia</w>
mar ítima</w>
fin alizar</w>
air port</w>
bi </w>
h ed</w>
for um</w>
ab as</w>
Mic h
ci tar</w>
fi ll</w>
Dar fur</w>
Pal acio</w>
cuid ad
sufri miento</w>
stu ffs</w>
compañ ero</w>
regres ar</w>
bene ficial</w>
present ará</w>
and er</w>
tom ó</w>
depend en</w>
weap on</w>
arm ing</w>
éndo lo</w>
si les</w>
re act</w>
hop ing</w>
encontr é</w>
f ú
est an</w>
Sto ck
organ ise</w>
dram atic</w>
&apos; am</w>
mi re</w>
c ing</w>
under take</w>
f ate</w>
plur i
demand as</w>
ex pi
E T</w>
estimul ar</w>
sud denly</w>
wh en
for ests</w>
categ orías</w>
asoci ados</w>
sent ence</w>
érco les</w>
pl as
ll eno</w>
5 2</w>
bra in</w>
limi taciones</w>
h as
Indus try</w>
im es</w>
mínim a</w>
Po demos</w>
cur sos</w>
s mi
coordin ar</w>
tim ely</w>
sli ghtly</w>
La e
Eco fin</w>
is hing</w>
i ente</w>
pursu ant</w>
repar to</w>
no tes</w>
o be
pri s
r uso</w>
er les</w>
under taking</w>
el le</w>
clear er</w>
con s
el d</w>
pien san</w>
obstá culo</w>
em an
u b
Lae ken</w>
lec ción</w>
observ ation</w>
avi ones</w>
acu mul
E D
indem ni
e ast</w>
t ora</w>
herrami entas</w>
aqu ella</w>
so il</w>
foot ball</w>
vi eja</w>
constat ar</w>
v ine</w>
dur as</w>
t estigos</w>
pi lot</w>
audiovi sual</w>
vuel o</w>
r enta</w>
F BI</w>
bio diversity</w>
e tt
emerg ing</w>
pursu ed</w>
Est a</w>
il ustr
h os</w>
Mug abe</w>
emi gr
infer ior</w>
párraf o</w>
pañ as</w>
satisfac e</w>
M s</w>
pri mor
ari ans</w>
no via</w>
Industri a</w>
continu a</w>
confid ent</w>
under stand
cro ps</w>
desarroll ando</w>
moder na</w>
si bles</w>
un like</w>
A ir
che ap</w>
observ adores</w>
proced ente</w>
pien sas</w>
human as</w>
B lack</w>
Wed n
ó nica</w>
excep to</w>
O l
Mus li
concier ne</w>
respec ting</w>
sub stitu
mi ércoles</w>
abst ained</w>
esc enario</w>
C res
for ever</w>
en amor
Yugos lav
caí da</w>
ag gres
N ick</w>
con fusión</w>
valor ación</w>
c ay
volun tari
m elo</w>
effici ently</w>
resul tar</w>
ev o</w>
Al ger
ar ising</w>
b é
human ity</w>
notic ed</w>
permitir ía</w>
re placed</w>
Lat ina</w>
sover eign</w>
cam pañas</w>
f ought</w>
intoler able</w>
total it
agrad eci
when ever</w>
reinfor ce</w>
s wit
inter medi
bre a
acab an</w>
St re
arri ve</w>
prud encia</w>
aplic ando</w>
Su per
liber ales</w>
ca su
IG C</w>
á monos</w>
inund aciones</w>
gr áfico</w>
RE ACH</w>
Nav idad</w>
is o</w>
Peti tions</w>
co tidi
fic ada</w>
harmon ised</w>
de vi
circun scri
f o</w>
cualific ada</w>
f arm</w>
kno wing</w>
des can
dis agree</w>
gr ade</w>
ho li
sust anci
im o</w>
t anos</w>
realiz e</w>
fif th</w>
5 7</w>
firm ar</w>
consid ere</w>
territori es</w>
ecológ ica</w>
particular es</w>
reven ue</w>
cu anti
supri mir</w>
libr os</w>
bigg er</w>
ner vi
ca er</w>
si vas</w>
Ch ris</w>
provoc ado</w>
guar dia</w>
eg an</w>
int entos</w>
rec y
afric anos</w>
fai ling</w>
per der
m últi
experi encing</w>
S ó
esper emos</w>
lo ans</w>
roman í</w>
compar able</w>
rele ased</w>
appar ent</w>
kid ding</w>
suspen sión</w>
integr ar</w>
sec ur
C N
er al</w>
counter fe
libre mente</w>
coher ence</w>
paci ente</w>
ob s
un ida</w>
modific ados</w>
exclusiv ely</w>
CI A</w>
ec nolog
arr ested</w>
mem oria</w>
o st
israel íes</w>
C entre</w>
so ever</w>
re t
repe ti
C he
preten den</w>
Gu erra</w>
Fre e</w>
llev o</w>
eg as</w>
se es</w>
percent age</w>
pes cado</w>
L T</w>
Cam bo
ocurri r</w>
g est
ez can</w>
pesquer os</w>
ac ked</w>
dossi er</w>
distinc tion</w>
Ci ud
W o
car ece</w>
Qui ero</w>
ej os</w>
Po et
mi ras</w>
en ia</w>
enér g
legisl ativos</w>
chap ter</w>
Ri ght</w>
Bra sil</w>
itali ana</w>
introduci do</w>
subsequ ently</w>
week end</w>
administr ativas</w>
Wedn esday</w>
charac ter</w>
ind ud
dol es</w>
cul ous</w>
D G</w>
senci lla</w>
Ci tiz
Du b
Fin nish</w>
uc k
associ ations</w>
ou gh
- lo</w>
Bar nier</w>
P os
ag s</w>
L om
obo da</w>
parall el</w>
D ay</w>
bon ito</w>
Servi cio</w>
nor thern</w>
rejec tion</w>
bi ll</w>
excesi va</w>
ta il
adv anced</w>
anni vers
co ches</w>
consoli dar</w>
Par ís</w>
se iz
astr o</w>
s wee
9 2</w>
convi erte</w>
confu sion</w>
b anda</w>
aci es</w>
armon izar</w>
re presión</w>
shi ft</w>
con gel
ar gue</w>
ing o</w>
ic als</w>
cu esta</w>
combin ación</w>
S O
fal se</w>
consist ency</w>
oblig atorio</w>
o i
se jos</w>
arm am
al right</w>
recog ida</w>
ás tico</w>
acc eler
transi t</w>
mu sul
integ rity</w>
fo to</w>
vi deo</w>
in habit
lam i
bre aking</w>
Cri stianos</w>
Mich el</w>
J ord
un cia</w>
prot est</w>
e pi
li v
congratul ating</w>
as en</w>
crimin als</w>
reg la</w>
deci mos</w>
Cor be
profes or</w>
ster ed</w>
mis sions</w>
autonom ía</w>
controversi al</w>
e vil</w>
legisl atura</w>
israel í</w>
dese able</w>
Sw oboda</w>
cum pla</w>
campaig ns</w>
este in</w>
gust ado</w>
dé cada</w>
J os
E D</w>
satisfactori o</w>
plant as</w>
am pl
Az er
th es</w>
do ors</w>
er adic
cha ir</w>
v ender</w>
Deci sión</w>
mens ajes</w>
im pone</w>
ani vers
ho st</w>
n ya</w>
er án</w>
believ ed</w>
Poet tering</w>
to w
vivi endo</w>
acog emos</w>
subra ya</w>
señ orita</w>
demasi ada</w>
gene tically</w>
seg undos</w>
explan ations</w>
mul ti</w>
conv entions</w>
def ens
what soever</w>
Dani el</w>
llam adas</w>
St eve</w>
G et</w>
st ore</w>
fron ti
clari fication</w>
realiz adas</w>
in vi
sil ence</w>
extranj eros</w>
preocup ado</w>
direc tos</w>
uni ons</w>
mi cr
Bolk estein</w>
tu los</w>
Tom my</w>
vi st
mem ory</w>
c ena</w>
altern atives</w>
aument ando</w>
h ne</w>
re ten
T it
decir te</w>
suspi ci
accep tance</w>
phi lo
Braz il</w>
mean time</w>
limi tación</w>
N ec
resist ance</w>
trans formación</w>
0 ,
consul ted</w>
habl an</w>
tes is</w>
pilo to</w>
expres amente</w>
M ul
ay ude</w>
defin ing</w>
trat aba</w>
suspec t</w>
exc eso</w>
ambici osos</w>
T an
az mente</w>
in vier
mín imos</w>
rul ing</w>
Chech nya</w>
fi x</w>
rec ru
neg ativas</w>
peli gros</w>
acer c
car ds</w>
evalu aciones</w>
Chech enia</w>
199 1</w>
Con cili
c ell</w>
Declar ation</w>
tu yo</w>
fac es</w>
democr atización</w>
per mitted</w>
simpli fy</w>
señ ales</w>
afirm ación</w>
occup ation</w>
annivers ary</w>
resid ence</w>
feel ings</w>
gu a</w>
lun ch</w>
g or
embar az
V I
fr ank
z ero</w>
en ve
il las</w>
don antes</w>
U C
re quer
uc e</w>
resul te</w>
contemp la</w>
hou sing</w>
re du
Wi ll</w>
ve to</w>
afec tado</w>
vac aciones</w>
reflec tion</w>
windo w</w>
tric os</w>
man eras</w>
hand ling</w>
ch an
program ación</w>
Tur ismo</w>
F eli
at om</w>
tom o</w>
prepar ativos</w>
ari ales</w>
co s
Bud get</w>
def endi
M ed
estabili zación</w>
tex tile</w>
Mal di
agra v
aplic ables</w>
di ario</w>
manten erse</w>
kil ó
implic adas</w>
Constitu cional</w>
Pen al</w>
ter o</w>
gust an</w>
d ated</w>
invers ores</w>
we i
Só lo</w>
An na</w>
anivers ario</w>
tr aje</w>
alem anes</w>
fac ul
erti dum
inc ertidum
sur vive</w>
admi sible</w>
sust ancial</w>
conv oc
un it</w>
o dos</w>
f aster</w>
Palest ine</w>
H A
ma ster</w>
fú tbol</w>
particip an</w>
vec indad</w>
echnolog y</w>
incorpor ación</w>
obli ga</w>
A p
er to</w>
pro mesa</w>
lac king</w>
li dad</w>
sali do</w>
delic ado</w>
as co</w>
Sing le</w>
- -
R ecu
proc lam
S on</w>
att ached</w>
of o
preserv ar</w>
pa st
re a</w>
O li
mon edas</w>
as ses</w>
vi vimos</w>
respe te</w>
Cot on
dir á</w>
K ir
inti mid
su it</w>
E P
co lleg
k een</w>
manifest aciones</w>
R ay</w>
z ation</w>
tradi tions</w>
unani mity</w>
plan e</w>
fall en</w>
corri ente</w>
neg ativos</w>
s ar
R oc
uel o</w>
intern as</w>
est í
D .</w>
manten iendo</w>
A ño</w>
hici era</w>
quar ters</w>
pres os</w>
t ía</w>
Dub lin</w>
conduc tores</w>
detrim ento</w>
cul tures</w>
trans misión</w>
ti ght</w>
impresi on
inter fer
destac a</w>
parti ci
trans posición</w>
ter ed</w>
thres hold</w>
ro us</w>
inter rog
reci cl
wed ding</w>
in o
visi ted</w>
conserv ation</w>
en ción</w>
r at
ad quisi
all ed</w>
mé ri
des igual
fam ous</w>
abast ecimiento</w>
res pir
an si
e ating</w>
em pren
igu ales</w>
Peti ciones</w>
E L</w>
im posing</w>
E G
log os</w>
formul ación</w>
dec re
mat ó</w>
cul turas</w>
o sidad</w>
S ist
restric t</w>
man ia</w>
esti ma</w>
apo ye</w>
examin ation</w>
cru el</w>
entusias mo</w>
rail ways</w>
a ult</w>
sorpren de</w>
A ri
tou ri
exper t</w>
y r
Thom as</w>
enci al</w>
perí odos</w>
mur dered</w>
gon z
T ú
H au
I .</w>
grav edad</w>
vac ío</w>
tt on</w>
manag ing</w>
enlarg ed</w>
desigual dades</w>
qued ó</w>
tar a</w>
multin acionales</w>
continu idad</w>
dro ga</w>
bor ne</w>
uti n</w>
scienti sts</w>
inequ ívoc
sel ling</w>
Au gust</w>
h es
aliz adas</w>
14 2</w>
secu estr
s adly</w>
f arms</w>
organ ic</w>
se de</w>
unán ime</w>
au er</w>
sóli do</w>
vali d</w>
bas arse</w>
bal ances</w>
Liber ales</w>
dej ando</w>
ra ises</w>
Lab our</w>
mi siones</w>
ir s</w>
distribu ted</w>
vic toria</w>
ow ski</w>
recogni ze</w>
r an
car eer</w>
ap ped</w>
clo sing</w>
ad ed</w>
am an
g all
represent ing</w>
smo king</w>
el son</w>
les son</w>
V ir
g ained</w>
vi al</w>
trat an</w>
highli ghts</w>
organiz ations</w>
mb </w>
Stat ute</w>
inter im</w>
satisf echos</w>
cul tivos</w>
mal as</w>
198 9</w>
Azer bai
ci en</w>
P utin</w>
Ti erra</w>
preced entes</w>
garan tic
y u
Esper a</w>
glob ales</w>
st ak
reconcili ation</w>
az ul</w>
gro wn</w>
- por</w>
report ing</w>
evid encia</w>
apropi ada</w>
consi gue</w>
espal da</w>
mem or
estableci das</w>
UE N</w>
re turned</w>
desempeñ ado</w>
ev en
prot agon
estú pido</w>
en v
Tú nez</w>
invest ors</w>
emis sion</w>
opho bia</w>
- What</w>
5 4</w>
s l
sent ado</w>
w earing</w>
Di d</w>
sat el
previ stas</w>
T AC
estr as</w>
marri age</w>
ex poner</w>
tel ef
hor se</w>
cre ativ
efic azmente</w>
ba sura</w>
dej an</w>
k iss</w>
colec tiva</w>
S hi
bi os</w>
achiev ements</w>
minister ial</w>
arro g
f low</w>
per judi
ne gr
muer ta</w>
ing ent</w>
8 00</w>
migr ants</w>
utiliz arse</w>
realiz an</w>
cuesti on
perspec tives</w>
fortun ately</w>
decir me</w>
ab road</w>
y ers</w>
S anta</w>
caball eros</w>
parlament arias</w>
al ous</w>
experi ences</w>
empi eza</w>
surround ing</w>
P S</w>
mo vements</w>
favor ables</w>
toler ancia</w>
energé ticos</w>
lo ts</w>
an xi
n esses</w>
f rase</w>
s tico</w>
vi lle</w>
import ed</w>
mar ch
convenci da</w>
attr active</w>
U sted</w>
qued arse</w>
ai se</w>
tw are</w>
absten ido</w>
man tienen</w>
t ment</w>
T ro
corr er</w>
f ears</w>
cer ve
tradi ciones</w>
r usos</w>
in k</w>
p ace</w>
func tions</w>
O ly
UE M</w>
Aliment aria</w>
V ale</w>
i v
b li
pa pe
guar di
ís ticos</w>
Citiz ens</w>
as ser
is a</w>
figur an</w>
llam ó</w>
chec ked</w>
dom és
ma trimonio</w>
eleg idos</w>
rig or</w>
c ír
lo cura</w>
ándo lo</w>
terc ero</w>
Mex ico</w>
Ob jec
ve amos</w>
benefici arios</w>
secon ds</w>
benefici arse</w>
justi ficar</w>
le ído</w>
en shr
assess ments</w>
posi tivamente</w>
Mini ster
sugg ests</w>
indi gn
Def ensa</w>
acab ado</w>
an on</w>
5 3</w>
favor ablemente</w>
con str
avan zando</w>
diag no
bre ach</w>
categ ories</w>
concedi do</w>
convic tion</w>
der a</w>
obser vers</w>
preocup an</w>
integr ada</w>
enter ing</w>
fre ez
le z</w>
C ab
n as</w>
umbr al</w>
influ ir</w>
with draw
Commun ist</w>
Po li
In g
cu ota</w>
vi va</w>
T A
7 00</w>
5 8</w>
P as
reiter ar</w>
pl ata
si x
sindic atos</w>
M ira</w>
den y</w>
mer os</w>
u le</w>
ver án</w>
di o
ad dy</w>
ten ías</w>
competi r</w>
Bri an</w>
ti eron</w>
so ft</w>
asi s</w>
contribu ting</w>
equival ent</w>
oblig atoria</w>
garanti z
utiliz ados</w>
senti mientos</w>
ju ventud</w>
scru tiny</w>
struc k</w>
reci pro
ent amiento</w>
caus ado</w>
pi st
clo thes</w>
F o
in men
cli ente</w>
ens ay
fre ight</w>
tor al</w>
proced ural</w>
S ri</w>
den es</w>
si tú
reg alo</w>
prelimin ary</w>
f it
separ ado</w>
accur ate</w>
p ág
s tic</w>
continú e</w>
priv acy</w>
di le</w>
provoc ar</w>
acost umbr
stand ar
ti tle</w>
felici tar
res ear
gro ss</w>
al ma</w>
k el</w>
resum ed</w>
res cu
under lying</w>
recon ozco</w>
limi ta</w>
Guant án
ofo bia</w>
lar s</w>
Guantán amo</w>
culp able</w>
integr ate</w>
est ación</w>
compar ison</w>
tá ne
recy cl
con fun
wh is
fif teen</w>
comple tar</w>
suger encias</w>
estric ta</w>
Es co
Jack son</w>
vo sotros</w>
birth day</w>
regular ly</w>
hol m</w>
ridi culous</w>
im pide</w>
mand atory</w>
V it
descan so</w>
reco ge</w>
sof tware</w>
isl ámi
accu sed</w>
system atic</w>
fi l</w>
author isation</w>
par ecido</w>
concentr ation</w>
lami ento</w>
Char les</w>
norm ally</w>
mode ls</w>
compr a</w>
con ciudadanos</w>
An d
Scot land</w>
re aliza</w>
cat astro
at mo
Por que</w>
impe tus</w>
appro aches</w>
re b
at añ
bio diversidad</w>
volver é</w>
er los</w>
ma inst
afirm ado</w>
rati ficado</w>
den ied</w>
h ad
tom an</w>
uti lic
segu irán</w>
J an
doc tors</w>
prev entive</w>
adver ten
z er
est y</w>
universi dades</w>
ste in</w>
corregi r</w>
lo t
fir es</w>
flow s</w>
religi osa</w>
car gos</w>
co al</w>
mach ine</w>
ex acer
vuel vo</w>
em por
sat é
m ud
centr arse</w>
pl enty</w>
r lo</w>
res ource</w>
recon ci
fe asi
in su
ent ab
imagin ar</w>
toler ance</w>
d at
su yo</w>
n a
Fr anci
t esting</w>
pe tro
sub jec
inter v
C li
A quí</w>
her self</w>
pre texto</w>
Bir mania</w>
B ow
ban ned</w>
us al
broad cast
naveg ación</w>
hubier an</w>
des ign</w>
ami st
j ef
fai ls</w>
farm ac
intern ation
sel t</w>
universi ties</w>
re medi
spli t</w>
not ably</w>
character istics</w>
bi an</w>
nam ed</w>
C ity</w>
r í
perten ece</w>
testi mon
spo t</w>
sustitu ir</w>
wh el
chem icals</w>
am able</w>
cu b
E h</w>
ch er</w>
mo ción</w>
s ong</w>
novi o</w>
al á</w>
found ation</w>
account ability</w>
trans l
P ES
r am
deci siva</w>
continu ation</w>
W ol
lleg amos</w>
frank ly</w>
ór denes</w>
encar cel
sacri fici
direc tas</w>
G al
tendr íamos</w>
Le on
hacer le</w>
alcan z
absur d</w>
Pos selt</w>
reci be</w>
ambi tions</w>
anunci ado</w>
o to
esc and
Inv est
particip ating</w>
r ab
divi de</w>
Jer usal
practic ally</w>
au ster
ignor ed</w>
pág ina</w>
cl ases</w>
coast al</w>
dar ling</w>
incorpor ar</w>
Sco tt</w>
Du bl
retro c
suel e</w>
atent ados</w>
af fair</w>
pur ch
z ap
al eg
americ anos</w>
hermo sa</w>
cu lo
chi ef</w>
accep ting</w>
es clav
col mo</w>
olvid ado</w>
sub </w>
con sent</w>
vic tory</w>
over whel
prome to</w>
des cans
justi fication</w>
ex changes</w>
deb ida</w>
A .</w>
j or
occid ental</w>
A y</w>
anci es</w>
bl ack
mo ves</w>
mutu a</w>
subsequ ent</w>
í gen
supervi sory</w>
tu de</w>
pen ales</w>
or it
min al</w>
st ing</w>
re mark
excep tions</w>
qui er
acer t
au tores</w>
pre dec
Eur atom</w>
Dubl ín</w>
ser é</w>
as om
advoc ate</w>
pro ven</w>
ir o</w>
car bón</w>
leng th</w>
movili zación</w>
I f</w>
sou l</w>
so los</w>
E IB</w>
si entes</w>
vi ste</w>
arti ficial</w>
ampli ada</w>
ob ject</w>
Occid ental</w>
portugu esa</w>
defini tivo</w>
apoy en</w>
continu amente</w>
mar king</w>
st on</w>
Mer co
conten idos</w>
te ach</w>
in tr
in fi
tu ber
excep cional</w>
éx ico</w>
g ate</w>
neg lec
investi gar</w>
as sets</w>
pi on
ex ención</w>
conden ar</w>
Merco sur</w>
cá mara</w>
2 1
log y</w>
fi les</w>
m el
bi e</w>
Leb anon</w>
os to</w>
atten d</w>
T í
ab und
dispu tes</w>
implic ación</w>
run s</w>
rati fy</w>
J on
w ages</w>
hab iendo</w>
vu elos</w>
registr ation</w>
provid ers</w>
transpar entes</w>
2 50</w>
retir ar</w>
r ón</w>
li qu
mir ando</w>
nuev amente</w>
ME DA</w>
fir man</w>
in cum
inhabit ants</w>
epid em
mar ry</w>
ous ness</w>
O oh</w>
00 .000</w>
movi e</w>
virtu ally</w>
l ác
Tuni sia</w>
Ob serv
Def ence</w>
conoc es</w>
ag osto</w>
irregular idades</w>
p ping</w>
intellig ent</w>
im munity</w>
offic er</w>
ki ller</w>
conduc e</w>
Cha irman</w>
identi fic
al d</w>
ci do</w>
execu tive</w>
cláusu las</w>
fis calidad</w>
see kers</w>
deliver ed</w>
min ds</w>
on ados</w>
h able</w>
Lu k
import ant
offic es</w>
Eri ka</w>
an en</w>
estric tamente</w>
L ev
des favoreci
O R
perten ecen</w>
D or
Invest ment</w>
investig ations</w>
i ous</w>
bac king</w>
b en</w>
vincul antes</w>
7 1</w>
af for
profundi dad</w>
cé lu
M éxico</w>
An g
ent ally</w>
accoun ting</w>
ch ers</w>
od d</w>
pi sta</w>
S A</w>
lle gu
monit ored</w>
tex til</w>
deleg ations</w>
tempr ano</w>
fu iste</w>
min or</w>
R yan</w>
ultra periféricas</w>
ab uses</w>
sali ó</w>
ra to</w>
sympa thy</w>
pl ayer</w>
L íb
sab erlo</w>
go ld</w>
rendi miento</w>
tre inta</w>
exper tise</w>
cu s</w>
3 0
Ed die</w>
tel eph
adequ ately</w>
persecu ción</w>
lec ciones</w>
ple años</w>
an ot
Su iza</w>
celebr ada</w>
safeguar ding</w>
neighbour hood</w>
Líb ano</w>
H or
crí tico</w>
cul min
acknowled ged</w>
- sí</w>
Pap á</w>
co ber
res or
b our</w>
so le
hab erlo</w>
preocup ados</w>
extraordin aria</w>
Austr alia</w>
blo qu
so oner</w>
i ka</w>
im pon
reduc tions</w>
on line</w>
dang ers</w>
inmun idad</w>
infring ement</w>
draf t
expan sion</w>
m ess</w>
ch ick
v ag
is las</w>
jurisdic tion</w>
previ stos</w>
pursu ing</w>
infr acción</w>
ter most</w>
extraordin ariamente</w>
relev ante</w>
S mi
bud dy</w>
absur do</w>
bom b</w>
contain ing</w>
envis aged</w>
des pi
previ o</w>
limi tada</w>
ro ck</w>
mal os</w>
farmac éu
des centr
c ope</w>
tradi cional</w>
vol viendo</w>
per diendo</w>
flu jos</w>
hu el
es ar</w>
ac compli
as ci
XX I</w>
inst aur
H om
pa ys</w>
sym bo
withdraw al</w>
G 20</w>
up set</w>
viaj es</w>
pres ents</w>
E lla</w>
al tamente</w>
initi ally</w>
plan e
refer encias</w>
pien sos</w>
d ner</w>
ou termost</w>
au ght</w>
tendr ían</w>
hom es</w>
dr ag
sensi bili
inc entive</w>
vari ety</w>
p ity</w>
al be
establec en</w>
Sud án</w>
ha z</w>
gir l
ir an
cre ía</w>
th o
represent ar</w>
at u
ul ed</w>
restric tive</w>
N atura</w>
swe ar</w>
collap se</w>
deleg aciones</w>
automó vil</w>
5 9</w>
- a</w>
Sy ria</w>
har mac
- You</w>
ocurri endo</w>
who le
reg imes</w>
lu m
felici taciones</w>
Bil ly</w>
facili ty</w>
reconcili ación</w>
compromis es</w>
solici ta</w>
ex posed</w>
fi lo
tar é</w>
ent e-</w>
hand ed</w>
á gi
lau ghter</w>
á frica</w>
the tic</w>
tori al</w>
sub y
Er as
renov ación</w>
incorpor ate</w>
S wit
acert adamente</w>
in ts</w>
pertin ente</w>
ton to</w>
F ar
Mi llen
contribu yen</w>
dur adera</w>
solu cion
li kes</w>
vent as</w>
whole hear
particip en</w>
sinc ere</w>
n t</w>
harmac eu
expec ting</w>
BE I</w>
Oly mp
Cá llate</w>
occid entales</w>
p y</w>
J ake</w>
ad ol
om as</w>
empe zado</w>
tor tura</w>
acab ó</w>
li fel
Dis culpe</w>
volver á</w>
n arro
prác tico</w>
colleg e</w>
lan zar</w>
fi a</w>
he avi
administr aciones</w>
psy cho
Bar on
ni ci
st uck</w>
vi ejos</w>
mainst re
ñ as</w>
re af
nombr amiento</w>
exp and
G on
for got</w>
lab el</w>
cum pleaños</w>
cre í</w>
si enten</w>
transat lán
Lib ya</w>
record s</w>
has n</w>
ta il</w>
serv ed</w>
resol ving</w>
amp ;</w>
dej en</w>
dec entr
& amp;</w>
Fre ed
desempeñ an</w>
in seguridad</w>
encu entre</w>
ach o</w>
contradic ción</w>
intensi ficar</w>
defens ores</w>
pendi ente</w>
S tu
dec line</w>
Serv ices</w>
Ru i
Wh it
tend encias</w>
L ang
ant e
fr ío</w>
pied ra</w>
habr ían</w>
for ec
audi tor
Cri minal</w>
le vi
t z</w>
0 6
emi tir</w>
thou ghts</w>
propon en</w>
tel ls</w>
celebr amos</w>
Millen nium</w>
exag er
en u
on i</w>
convic ción</w>
cor ta</w>
vo ters</w>
Sud áfrica</w>
evalu ate</w>
stat ute</w>
Li bia</w>
Ju li
Si ria</w>
form ula</w>
warr ant</w>
PH ARE</w>
cen so</w>
Eras mus</w>
Iraq i</w>
investig ate</w>
ce iling</w>
dimen siones</w>
the ory</w>
E v
reform ar</w>
vuel van</w>
ple d
T S</w>
T ob
ur o</w>
T I
go d</w>
FO R</w>
re h
C lau
mi x
cy cle</w>
n it
te oría</w>
Sud an</w>
transeurope as</w>
ess ence</w>
ater n
llev amos</w>
su plement
ru ta</w>
previ siones</w>
John ny</w>
C 6</w>
des pe
me ets</w>
ma inten
te za</w>
apoy ando</w>
al -</w>
aph s</w>
neutr al</w>
escu char
W ho
ar ías</w>
chi pri
exten sión</w>
salvaguar dar</w>
rel ax</w>
pres sion</w>
á m
good bye</w>
stor age</w>
san idad</w>
S or
ed ge</w>
ecnolog ía</w>
tr au
reac cionar</w>
con du
supon en</w>
S I
der e
físi ca</w>
dol lars</w>
do g
str ingent</w>
dar nos</w>
P an
d ates</w>
t aria</w>
mainten ance</w>
examin ing</w>
vín culos</w>
abar ca</w>
S ak
tel o</w>
realiz ada</w>
0 5
inspec tion</w>
separ ación</w>
se y</w>
de voted</w>
refu gee</w>
enti endes</w>
r é
smo ke</w>
on i
lov ely</w>
li sts</w>
prome tido</w>
vist azo</w>
philo soph
In versiones</w>
zer land</w>
obst acu
conten to</w>
almacen amiento</w>
vi sas</w>
produ zcan</w>
parti al</w>
Jar z
bur antes</w>
ent ero</w>
sy n
al entar</w>
S und
pudi eran</w>
to ca</w>
oto ño</w>
interrump e</w>
Europe as</w>
ju ven
muni cip
a ustri
ti ll
Esco cia</w>
esenci almente</w>
dri ven</w>
fe atures</w>
sucedi endo</w>
ir te</w>
apoy an</w>
out lined</w>
her o
priorit ario</w>
Jarz emb
tum n</w>
ecológ ico</w>
tranqui lo</w>
empe zó</w>
garantic en</w>
estric tos</w>
incid ent</w>
emb aj
conclu des</w>
ú ch
A ll
mé dica</w>
Com i
universi dad</w>
adap tar</w>
p harmaceu
Swit zerland</w>
t ea</w>
resuel to</w>
w est</w>
mom ent
tra er</w>
tr y
jugu etes</w>
Corbe tt</w>
min es</w>
Ear th</w>
su poner</w>
f otos</w>
destru ir</w>
opti mi
infrastruc tures</w>
ship ping</w>
car se</w>
u li
peligro sa</w>
transfer red</w>
seri as</w>
au d</w>
ju ez</w>
W ar
vi vos</w>
focu sing</w>
gi g
ju egos</w>
con lleva</w>
en ables</w>
bom ba</w>
muer tes</w>
M A
le tra</w>
ambici osa</w>
indic ation</w>
ner ships</w>
ard ous</w>
modific ado</w>
a sion</w>
cre an</w>
comple ja</w>
vig entes</w>
autonom y</w>
Alg una</w>
l us
dar me</w>
profes sion
inqui ry</w>
of fen
pid en</w>
rep ente</w>
ti era</w>
C anc
dr ás
ol es</w>
medic ine</w>
comen zado</w>
sh el
culo sis</w>
loc ked</w>
aler ta</w>
r acion
proportion ate</w>
paragr aphs</w>
comen zó</w>
consegu imos</w>
juz gar</w>
ec emos</w>
m ati
perpe tr
plen aria</w>
li p
albe it</w>
Lom é</w>
baj ar</w>
st aying</w>
stak eholders</w>
mad era</w>
Sar k
se j
aco ge</w>
tem or</w>
prolifer ación</w>
bloo dy</w>
ast s</w>
tari f
M amá</w>
gan a</w>
avoid ed</w>
rene wed</w>
organiz ation</w>
suc esos</w>
can ción</w>
L ee</w>
c ate</w>
en ri
C had</w>
cerve za</w>
llev arse</w>
deten idamente</w>
ac her</w>
Cap it
Ti bet</w>
aqu ello</w>
1 20</w>
su n</w>
tecnológ ico</w>
record arles</w>
en com
apren dido</w>
M I</w>
delin cu
ol ly</w>
dis covered</w>
vín culo</w>
&apos; cause</w>
excu sa</w>
pi lares</w>
gener ous</w>
eléc tr
hi pó
é ro
e quisi
prer equisi
com position</w>
sorprend ente</w>
defi ende</w>
x ido</w>
9 3</w>
our ing</w>
lo ves</w>
cuant os</w>
mitt ing</w>
ignor ar</w>
discu siones</w>
be er</w>
testi go</w>
C 4</w>
kiló metros</w>
exclu sive</w>
produci endo</w>
dispon en</w>
ch urch</w>
sal ario</w>
ocup an</w>
lengu aje</w>
in jur
pi ed</w>
al os</w>
record ed</w>
soci alista</w>
escri bir</w>
GM Os</w>
che ap
recha za</w>
ho c</w>
res ión</w>
haz ardous</w>
centr a</w>
Mor gan</w>
pregun tado</w>
volu me</w>
volvi ó</w>
hun gry</w>
An ge
vo d
de volu
con firma</w>
ocur ra</w>
cre íble</w>
vi ci
fo od
O f</w>
enem y</w>
modern isation</w>
disculp as</w>
sensi bles</w>
prepar ando</w>
form ing</w>
de duc
renunci ar</w>
mor tal
ocupar nos</w>
G o</w>
mi endo</w>
survi val</w>
Es cu
program ming</w>
pens amiento</w>
ridí culo</w>
ten gas</w>
exhaus tiva</w>
2 ,
d ating</w>
cober tura</w>
IN D</w>
corre o</w>
stre ets</w>
D addy</w>
lo sos</w>
convenci dos</w>
mean ing
legisl aciones</w>
fulfi lled</w>
N unca</w>
enve je
S P
fi quen</w>
gener ate</w>
Jarzemb owski</w>
r ú
r are</w>
dri ver</w>
económi camente</w>
religi osas</w>
desapar ecido</w>
cer em
deten tion</w>
suc eder</w>
fl ying</w>
consolid ation</w>
N ada</w>
pres ti
emerg ed</w>
public ación</w>
luch ando</w>
r ad</w>
adap tarse</w>
Ten emos</w>
mess ages</w>
pr esta</w>
vot aremos</w>
w estern</w>
an gry</w>
ag eous</w>
Ing later
grat u
o jo</w>
Wall ström</w>
fu imos</w>
pen e
indi can</w>
a í
consist ently</w>
fór mula</w>
per mis
ga ther
Iz quierda</w>
I o</w>
refer ences</w>
oz y</w>
ä n
elec tores</w>
thor ough
op in
pi llar
abier tos</w>
dr é</w>
Lan ka</w>
Ven ez
urg entes</w>
comit és</w>
abord ado</w>
Al guien</w>
partici par
qu into</w>
Jac ques</w>
inter iores</w>
li qui
distin ción</w>
últim amente</w>
cla uses</w>
S lovenia</w>
w ave</w>
contr ast</w>
des as
ag rup
pre ver</w>
so le</w>
maravil loso</w>
Th anks</w>
safe guards</w>
atr av
Qui ere</w>
D I
cha se</w>
Inglater ra</w>
acus aciones</w>
r establecer</w>
cali ficación</w>
com mend</w>
asegur arse</w>
r anging</w>
propu so</w>
er i
pas an</w>
s ín
we b
hou se
gri ego</w>
substanti ally</w>
en i
bloque o</w>
mon stru
ear th
realiz arse</w>
au tumn</w>
confirm ado</w>
disminu ción</w>
estí mu
comple tion</w>
si da</w>
cuid ar</w>
or amiento</w>
interes antes</w>
Liber als</w>
con son
Est amos</w>
R eding</w>
aliz ed</w>
cu bier
bu ll
recommend ed</w>
produci rse</w>
res is
fas ci
ter ía</w>
justi ficación</w>
ob </w>
PN R</w>
endor sed</w>
sh ir
actu ando</w>
pro seguir</w>
r ico</w>
ili ty</w>
ajust e</w>
inter venido</w>
j ail</w>
inter gubernamental</w>
v ous</w>
op hi
transfronteri zos</w>
disast rous</w>
bro ma</w>
D eleg
constr ain
dispon ibilidad</w>
Est o
gl ass</w>
pos ee</w>
spi r
fli ghts</w>
Mil enio</w>
sosten ibles</w>
em or
exacer b
g ando</w>
of en
so b
bom bar
n avi
sup er</w>
di am
endeav our</w>
musul man
p age</w>
ag eing</w>
censur a</w>
punish ment</w>
múlti ples</w>
escap ar</w>
dul ce</w>
c and
fin ds</w>
four thly</w>
r ational</w>
9 1</w>
L en
norm ativas</w>
fabric ación</w>
muchac hos</w>
train ed</w>
ac adem
recog er</w>
criteri on</w>
r usa</w>
en seguida</w>
aero puerto</w>
dictator ship</w>
D av
investig adores</w>
indic ación</w>
L et
justific ada</w>
qui eran</w>
mundi alización</w>
W eb
razon ables</w>
M uc
anun cio</w>
coordin ada</w>
bo da</w>
regi stered</w>
discipl ina</w>
preci sión</w>
moun tain</w>
hun ger</w>
B at
rumb o</w>
tendr ás</w>
excesi vo</w>
Li bre</w>
qu ej
disfru tar</w>
0 1
soport ar</w>
recogn ises</w>
po ly</w>
Sy stem</w>
Comun idades</w>
enri qu
E F
Objec tive</w>
húngar a</w>
ud as</w>
pre text</w>
as surance</w>
CO D</w>
ver gonz
Armen ia</w>
social demócratas</w>
franc amente</w>
consul tations</w>
R and
0 2</w>
ver as</w>
mos lo</w>
dam aging</w>
asisti r</w>
D R</w>
excel entes</w>
mar c
sm ell</w>
bac ks</w>
Educ ation</w>
quími cos</w>
presi on
6 6</w>
produc er</w>
bus es</w>
r ation
des ired</w>
cerebr o</w>
ir landeses</w>
dis capaci
trat arse</w>
Institu to</w>
origin ally</w>
bl ed</w>
ho le</w>
gi ft</w>
produc tividad</w>
F ir
cambi a</w>
ro t
jubi lación</w>
escánd alo</w>
F or</w>
so lar</w>
democr atically</w>
E sp
è s</w>
L y
apar entemente</w>
de fe
pri ori
inclu sive</w>
li ft</w>
ki e</w>
ick y</w>
primor dial</w>
soli d
part nerships</w>
H us
some tido</w>
S her
equivoc ada</w>
B eij
men ción</w>
ASE AN</w>
respon da</w>
observ ations</w>
fer as</w>
esfor z
lác te
volunt aria</w>
oj alá</w>
wi shed</w>
Euro just</w>
civili zación</w>
lo y</w>
gi ene</w>
Sark ozy</w>
- es</w>
&apos; T</w>
escas ez</w>
dis advant
discipl ine</w>
produc tivity</w>
tram it
procur ar</w>
É l</w>
respe ta</w>
N az
simpli fied</w>
boy friend</w>
dem ora</w>
enfrent arse</w>
R ec
g á
asi a</w>
Mar k</w>
ag ents</w>
Co hesion</w>
de port
bro me
n ave</w>
mar ítim
dict adura</w>
H IV</w>
bu ying</w>
prision eros</w>
cr y</w>
imper ative</w>
multi plic
real ice</w>
volun tario</w>
olvid emos</w>
sec tions</w>
R ü
Beij ing</w>
ar ena</w>
audi encia</w>
si e</w>
fundament ally</w>
For d</w>
Prof essor</w>
reli ef</w>
cas as</w>
pi pe
author ised</w>
Ferr ero</w>
esti mate</w>
com plem
ren dir</w>
comple j
edi do</w>
in cumplimiento</w>
wonder ing</w>
intellig ence</w>
Ar ab
detall ada</w>
Ciud ad
satel lite</w>
estr y</w>
hom en
girl friend</w>
muchac ho</w>
Stock holm</w>
perió dico</w>
gen era</w>
A my</w>
gu erras</w>
re pli
mar cado</w>
l aying</w>
ban ana</w>
sub v
to -</w>
hab las</w>
dis rup
ll ena</w>
ow nership</w>
G M</w>
Jos é</w>
mean while</w>
luc es</w>
des vi
C ó
defici ts</w>
K az
regul arities</w>
O ne</w>
reser ves</w>
llev en</w>
condi cion
fl ag</w>
civili ans</w>
in compatible</w>
a porte</w>
aband on</w>
f oc
st al</w>
assu red</w>
consci ence</w>
ir regularities</w>
mon d</w>
es condi
em in
aco ger</w>
no tion</w>
Cre o</w>
po sts</w>
Es lovenia</w>
comit ología</w>
I gu
re memb
est és</w>
CI G</w>
ghten ed</w>
log ic</w>
tack led</w>
ter ap
averigu ar</w>
Democr atic</w>
con tienen</w>
conson ancia</w>
emple ar</w>
lin ing</w>
recom i
0 5</w>
condi tional</w>
discipl in
re embol
magn itud</w>
ei ved</w>
K u
cop y</w>
con dol
Shar on</w>
E CO
or ino</w>
prim a</w>
n ings</w>
p her
lu s</w>
su ms</w>
in appropriate</w>
aband oned</w>
d ens</w>
ab i
sub ordin
h in
mis er
fo ol</w>
funcion an</w>
ex tern
én f
demasi adas</w>
let ters</w>
T ay
T E</w>
idi onal</w>
ke eps</w>
har dt</w>
o dy</w>
pregn ant</w>
TAC IS</w>
k m</w>
ten ant</w>
indic aciones</w>
O F</w>
CN S</w>
Nor dic</w>
Esto colmo</w>
lifel ong</w>
trans acción</w>
fi ebre</w>
encontr ó</w>
inter ference</w>
revolu ción</w>
us ando</w>
h éro
Institu te</w>
sched uled</w>
Ro th</w>
offic ers</w>
intelig encia</w>
par lamento</w>
sol ía</w>
comfor table</w>
ri ver</w>
tra e</w>
id en</w>
énf asis</w>
intent an</w>
progres sive</w>
r é</w>
estric to</w>
vi abilidad</w>
I cel
ot ing</w>
H ai
teleph one</w>
jour ney</w>
precau tionary</w>
respon ses</w>
dis gr
sugi ere</w>
niñ as</w>
encar gado</w>
soci ally</w>
sufri r</w>
s la
desas tres</w>
ach ers</w>
exist an</w>
elo gi
incertidum bre</w>
initi ated</w>
Wal ter</w>
revi se</w>
ta la</w>
confi gur
mu gg
r idos</w>
t less</w>
o le
qu ejas</w>
s pon
Bar ón</w>
ambi ciones</w>
ed entes</w>
Ir anian</w>
cam p
W a
declar ar</w>
mod alidades</w>
wal king</w>
earth qu
pr aise</w>
differ ently</w>
pr ó
preci pit
Fin anci
conc eder
j etas</w>
A s</w>
inevit ably</w>
ir respective</w>
l oud</w>
tou ched</w>
for th</w>
emi go</w>
Vit orino</w>
comprehen sible</w>
trav elling</w>
relev antes</w>
Som alia</w>
esper ado</w>
xi de</w>
cre w</w>
D ía</w>
y s
dis appeared</w>
conven io</w>
ver é</w>
l ace</w>
inspec ción</w>
corpor ate</w>
r ío</w>
j ado</w>
ear ed</w>
6 3</w>
ash ed</w>
occu pied</w>
ísi ma</w>
con sentimiento</w>
per judicial</w>
cin cuenta</w>
t aught</w>
sti ma</w>
ent err
activ as</w>
tri z</w>
at o
enjo yed</w>
célu las</w>
Eng land</w>
ex act</w>
Agr ícola</w>
l ema</w>
Y outh</w>
b uc
bas adas</w>
exhaus tivo</w>
ac á</w>
rom per</w>
Solidar ity</w>
serv es</w>
Solidar idad</w>
refor zada</w>
selec ción</w>
6 2</w>
circunst ancia</w>
no w
bene plá
P ack</w>
mi xed</w>
an al
cal ma</w>
oun ce</w>
Er ic</w>
h áb
dir ty</w>
s ad
ocup ar</w>
P le
conclu ido</w>
infi erno</w>
V as</w>
en emigo</w>
Wal dner</w>
comen z
threaten ing</w>
grav emente</w>
hi er
G l
beneplá cito</w>
cal les</w>
Industri al</w>
rig orous</w>
l or</w>
fem en
repres sion</w>
Luk ash
D ou
¶ </w>
vac uno</w>
adap ted</w>
sur gido</w>
G ri
ac or
chil d
P P
6 8</w>
inform ados</w>
tuber culosis</w>
cabal lo</w>
kid n
fashi on</w>
arru in
u ela</w>
cam p</w>
tom arse</w>
fe ature</w>
Ne w
prolifer ation</w>
tr az
des acuerdo</w>
av ent
potenti ally</w>
Per spec
belong s</w>
r ating</w>
V el
dr unk</w>
ultim ate</w>
propu estos</w>
cualific aciones</w>
char ged</w>
slow ly</w>
ab ur
revolu tion</w>
sol ving</w>
tir se</w>
reac cion
A caso</w>
T y
aprob amos</w>
im er</w>
ar t
re verse</w>
en na</w>
fl agr
perió dicos</w>
arrang ement</w>
I R
f at</w>
se ttle</w>
vec ino</w>
observ ado</w>
presi onar</w>
ci tamente</w>
7 7</w>
obstac le</w>
enab led</w>
prest aciones</w>
delic ate</w>
fi gu
ch ampi
tor ate</w>
so lem
a ustr
suici de</w>
specul ation</w>
firm es</w>
premi o</w>
subv encion
V ar
al qui
en sured</w>
quer ías</w>
lab a</w>
actu aciones</w>
particip ants</w>
vehí culo</w>
reti rement</w>
mi x</w>
repercu s
compon ent</w>
resid entes</w>
vig or
every day</w>
Segur o</w>
o las</w>
some how</w>
prepar ada</w>
ni ega</w>
ac com
y i
pas ará</w>
oc curr
abu ela</w>
gesti on
h et
coc ina</w>
graph y</w>
explo it</w>
presid ential</w>
P la
star ts</w>
atmo sphere</w>
G 8</w>
pod ían</w>
asesin atos</w>
Wh en</w>
nú cle
C entro</w>
apar tados</w>
re patri
inspec ciones</w>
gan as</w>
ur gu
pi el</w>
oun ded</w>
conc ur
espos o</w>
individu os</w>
me tas</w>
entreg a</w>
H amas</w>
repercus sions</w>
explici tly</w>
lo ad</w>
verdad eros</w>
graci oso</w>
remark able</w>
cre ative</w>
al ban
enterpri se</w>
t ative</w>
conden ado</w>
fin dings</w>
dar ía</w>
Li ik
prob ar</w>
parliam ent
coher entes</w>
cel ls</w>
recycl ing</w>
ev in</w>
entr ado</w>
circunscri pción</w>
US D</w>
Smi th</w>
br inda</w>
ro ot</w>
Bob by</w>
aspir aciones</w>
coinci de</w>
homen aje</w>
Lukash enko</w>
apar tment</w>
di fusión</w>
fundam entos</w>
tri gg
bio fuels</w>
ing er</w>
és emos</w>
open ly</w>
int ed</w>
ali vi
su eco</w>
consi go</w>
record ado</w>
ap as</w>
mon ta
F A
dre ams</w>
re alised</w>
truc k</w>
c í
intent amos</w>
habr án</w>
emb ri
el and</w>
exemp tion</w>
ex pon
alimenti cios</w>
th r
objec tions</w>
min ent</w>
Ann ex</w>
di gamos</w>
eur </w>
tram pa</w>
re bel
extraordin ario</w>
prác ticos</w>
auth ori
em en</w>
habl ó</w>
at ender</w>
perfec ta</w>
es or</w>
continú an</w>
c amos</w>
correspon ding</w>
im pl
diseñ o</w>
limpi o</w>
AN D</w>
V oy</w>
remo val</w>
mar tes</w>
apre cio</w>
Po si
tr ay
electró nicos</w>
es ome</w>
superfici e</w>
tech ni
leg ítimo</w>
entr ó</w>
jur o</w>
Cy pri
exter nos</w>
quar ter</w>
sensi bilidad</w>
determin ada</w>
ME P</w>
c lock</w>
con fin
tir á</w>
jun ta</w>
du al</w>
7 8</w>
contamin antes</w>
Educ ación</w>
llam an</w>
s el</w>
supervi vencia</w>
rec op
orgul loso</w>
excesi vamente</w>
S k
remain ed</w>
E lli
Jer ry</w>
remin ded</w>
cal or</w>
ad o-</w>
err ors</w>
ch ino</w>
internation ally</w>
6 7</w>
ro mp
Liik anen</w>
pun ished</w>
loc ated</w>
un its</w>
mu ti
F ather</w>
atañ e</w>
c tic</w>
dat ab
neg lig
ag resi
lá stima</w>
8 6</w>
ven go</w>
respon dido</w>
cur e</w>
voc ational</w>
autom atically</w>
tre e</w>
éx itos</w>
appoint ing</w>
offici ally</w>
vot amos</w>
mez c
én es</w>
adqui rir</w>
Congres o</w>
broad ly</w>
food stuffs</w>
cali ente</w>
en oj
ev ol
hermo so</w>
bille tes</w>
hacer nos</w>
ste el</w>
agrad ecido</w>
qué date</w>
utilic en</w>
un t</w>
K ate</w>
deci ding</w>
N egro</w>
dej emos</w>
ten siones</w>
re iv
o este</w>
cometi dos</w>
ag ent</w>
pi eces</w>
ben ch
c s</w>
conc esiones</w>
vay as</w>
ser emos</w>
obstacu li
ho la</w>
avoid ing</w>
no where</w>
idi ot</w>
s ations</w>
Gener ales</w>
P A</w>
pis o</w>
sal ga</w>
stric ter</w>
suc esi
appreci ation</w>
proporcion ado</w>
tr ess</w>
enshr ined</w>
de volver</w>
su fr
aport a</w>
ap ping</w>
differ enti
equilibri os</w>
statis tical</w>
pic ked</w>
relation ships</w>
ur ani
dr as
llam as</w>
dig no</w>
complement aria</w>
isl ands</w>
don ors</w>
secre tos</w>
heavi ly</w>
At lántico</w>
inequ alities</w>
fi red</w>
An ti
disadvant aged</w>
suje to</w>
In formation</w>
R I
hou ses</w>
tw el
aw ful</w>
Lou is</w>
entendi miento</w>
as ks</w>
Sund ay</w>
subray ado</w>
vali ente</w>
expul s
indud ablemente</w>
9 4</w>
fo ods</w>
announ cement</w>
ob struc
Sad dam</w>
eman n</w>
un cle</w>
de bi
Rom anian</w>
ent endemos</w>
energé ticas</w>
organiz ed</w>
enten der
c op</w>
mo da</w>
Bro wn</w>
B endi
Mul der</w>
Ber lus
eu tenant</w>
t one</w>
CE E</w>
pu ente</w>
ec erá</w>
vesti do</w>
Sab e</w>
st yle</w>
demo gráfic
fo to
as eg
orient ation</w>
inst ar</w>
prepar atory</w>
dec ír
ar ticles</w>
vivi do</w>
estim ates</w>
so br
wi ld</w>
jo ke</w>
inoc entes</w>
resear chers</w>
ch inos</w>
20 14</w>
e to</w>
s ly</w>
centr ar</w>
flexi bles</w>
quer idos</w>
Tu esday</w>
Clar k</w>
fac to</w>
ide ológ
U h</w>
sustain ed</w>
ric h
w anting</w>
dr ama</w>
opon emos</w>
por qué</w>
cro w
bur n</w>
for estry</w>
comien za</w>
Gon z
ab ra</w>
decir se</w>
preced ente</w>
inspec tions</w>
fun eral</w>
gg ing</w>
pag an</w>
aére a</w>
necesit aba</w>
fo ster</w>
much ísimo</w>
tar nos</w>
te achers</w>
pres sed</w>
inquie tud</w>
exclu siva</w>
H al
concep tos</w>
Vi enna</w>
po ol</w>
per form</w>
Berlus coni</w>
ch et</w>
t ed
gar á</w>
dec ade</w>
in útil</w>
con oz
b one</w>
sen ior</w>
just as</w>
dese ado</w>
aboli ción</w>
demand ed</w>
V es</w>
gene tic</w>
Mc Car
D et
S av
esper e</w>
combin ation</w>
produ jo</w>
Canc ún</w>
democr atisation</w>
be ber</w>
rou tes</w>
honest ly</w>
ho gares</w>
alar man
Bu enos</w>
C ali
efici entes</w>
wor th
adul tos</w>
r y
A sian</w>
americ ano</w>
custom ers</w>
c at</w>
explic a</w>
mono poly</w>
enfer mo</w>
C er
D ur
list os</w>
mencion ados</w>
commer ce</w>
s aqu
partid arios</w>
transfer s</w>
appear ance</w>
- No</w>
vay amos</w>
Liber ties</w>
op ina</w>
traduc ción</w>
ai ling</w>
R ad
pa in
ampli as</w>
s ms</w>
dist urb
modific a</w>
abo gados</w>
lleg ada</w>
incredi ble</w>
ac ta</w>
estratég icos</w>
o fic
ro jo</w>
Co hn</w>
vent ana</w>
Ev ans</w>
fr ági
el li</w>
compren de</w>
peri pher
dot ación</w>
Bö ge</w>
cam ps</w>
th in</w>
ci ls</w>
lingu istic</w>
M it
M is
Occid entales</w>
problem ática</w>
consoli date</w>
z be
qued en</w>
des afortunadamente</w>
obje ciones</w>
wholehear tedly</w>
wor ker</w>
invi to</w>
sueñ os</w>
z ones</w>
point ing</w>
some ter</w>
dro pped</w>
tari ff</w>
constitu ency</w>
mon taña</w>
descubri r</w>
adjust ment</w>
bas ándose</w>
inf ancia</w>
thorough ly</w>
S S</w>
n ar</w>
C ur
Vice presidenta</w>
who ever</w>
ti an</w>
se ats</w>
K evin</w>
Lo ok</w>
ce ase</w>
es casa</w>
adop ta</w>
am entos</w>
ser s</w>
cuar ta</w>
Vi ena</w>
pillar s</w>
Islam </w>
chann els</w>
hom e
21 st</w>
complej idad</w>
li ty</w>
pos s
condi cional</w>
N A</w>
re alistas</w>
ch ose</w>
ne o</w>
continu o</w>
tra ído</w>
pl agu
indic ates</w>
suger encia</w>
multi annual</w>
head ed</w>
c attle</w>
encu entren</w>
ca za</w>
trans position</w>
ne gar</w>
Feder ation</w>
floo ds</w>
micr o</w>
an ca</w>
dis appear</w>
P atr
braz os</w>
eti queta</w>
vivi enda</w>
De part
com ponente</w>
trans curso</w>
suf re</w>
ayud arte</w>
extrañ a</w>
war s</w>
st ating</w>
benefici a</w>
t egr
suje tos</w>
Pe ter
m ama</w>
D C</w>
protection ism</w>
ther ine</w>
ayud ado</w>
bor do</w>
actu ado</w>
car ajo</w>
baj as</w>
Mari e</w>
cons agr
me ta</w>
idi oma</w>
system atically</w>
Tí bet</w>
draft sman</w>
registr os</w>
emple ado</w>
Olymp ic</w>
co financiación</w>
constrain ts</w>
ang es</w>
hand led</w>
detrim ent</w>
supon dría</w>
transfronteri zo</w>
pic s</w>
qui se</w>
tu ya</w>
hid ing</w>
conserv adores</w>
conc essions</w>
s mugg
te acher</w>
gri ega</w>
incid ents</w>
adver se</w>
7 2</w>
D r</w>
like wise</w>
St ar
8 9</w>
comit ology</w>
tri pul
su pi
M itch
esc úch
devolu ción</w>
ma kers</w>
reduc ciones</w>
exis tiendo</w>
don or</w>
st an</w>
ke ys</w>
ferrocarri les</w>
lin s</w>
dis cursos</w>
expan sión</w>
TE S</w>
mot or
pedi ría</w>
no ble</w>
huel ga</w>
cont estar</w>
Chi le</w>
assess ing</w>
demasi ados</w>
depart amento</w>
incid entally</w>
dipu tada</w>
persu ade</w>
app alling</w>
subjec ted</w>
pluri anual</w>
Bendi t</w>
Feder ación</w>
lament amos</w>
Ciudad anos</w>
celebr ó</w>
Baron ess</w>
pro vo
aliz aciones</w>
Con federal</w>
ul ación</w>
Man n</w>
reci ban</w>
universi ty</w>
Chri st</w>
pic tures</w>
deli very</w>
pharmaceu tical</w>
cigar ri
r ado</w>
consul tar</w>
Ca uc
funcion ando</w>
claim ed</w>
standar dis
incid ente</w>
libr as</w>
invit ación</w>
Sist ema</w>
compati bles</w>
demonstr ation</w>
respe tan</w>
O omen</w>
k ick</w>
asign ado</w>
legisl ar</w>
deterior o</w>
er emos</w>
ev y</w>
expen ses</w>
supervis ar</w>
proteccion ismo</w>
descu bierto</w>
acer tado</w>
si llo</w>
Bang emann</w>
un irse</w>
bos que</w>
solici to</w>
pho to
limi tarse</w>
Alger ia</w>
M ir
att ach</w>
f ases</w>
In dian</w>
deri va</w>
ig les
Lat via</w>
un idos</w>
un idades</w>
pro hí
im á
Mier da</w>
e gue</w>
Po dr
rescu e</w>
invest ing</w>
comun ista</w>
man tenemos</w>
fas cin
Le hne</w>
ofic inas</w>
jug ando</w>
rel aj
D un
stri kes</w>
obli gar</w>
sistem ática</w>
cap turas</w>
sent encias</w>
b al</w>
harmon ise</w>
insist e</w>
quer íamos</w>
má quina</w>
gr ab</w>
ref us
respec tivos</w>
g na</w>
S he
bre n</w>
K ati
terri bles</w>
igles ia</w>
compar ten</w>
eci endo</w>
ob sole
ofici almente</w>
prac ti
P E
tow ns</w>
ap ag
pued as</w>
reci bió</w>
Mad eira</w>
N ow</w>
refer endo</w>
g aining</w>
registr ado</w>
pesquer as</w>
post ales</w>
Institu ciones</w>
leg alidad</w>
imá genes</w>
bol sa</w>
witn essed</w>
senti mos</w>
ép timo</w>
re me
respe tando</w>
sub scri
Sim on</w>
EE C</w>
cop s</w>
acep te</w>
EL DR</w>
L O
mal e</w>
Ro ger</w>
renov able</w>
saf er</w>
conoci da</w>
addres ses</w>
Let onia</w>
P on
administr ativo</w>
Ber n
medicin al</w>
A dónde</w>
Har bour</w>
op pon
gh ten</w>
sir ven</w>
we ather</w>
ad ding</w>
- si</w>
OM G</w>
stimul ate</w>
law yers</w>
mi ren</w>
Taiw an</w>
TH AT</w>
T hi
H ague</w>
ch ances</w>
sobre vivir</w>
cor e
gui de</w>
vot antes</w>
simul táne
gast ar</w>
res ur
m ass
conf identi
t el</w>
cami ones</w>
consegu irlo</w>
re torno</w>
competi tivo</w>
símbo lo</w>
magn ífico</w>
efectu ar</w>
únic os</w>
t ese</w>
ace ite</w>
desapar ición</w>
encant ado</w>
enc err
pen sión</w>
Económi co</w>
8 7</w>
dedic ar</w>
al dad</w>
re mark</w>
respon ding</w>
Kur dish</w>
per mission</w>
in n</w>
il lo</w>
ö r
lin do</w>
sién tate</w>
suby ac
s k</w>
H am
filo sof
cont ado</w>
avan zada</w>
fronteri zos</w>
plata forma</w>
reun ir</w>
PES C</w>
co ast</w>
cerr ada</w>
ic ana</w>
ir responsible</w>
in estabilidad</w>
8 2</w>
icul tura</w>
tari at</w>
si ans</w>
R ach
top ical</w>
with drawn</w>
sho es</w>
dec enas</w>
al arming</w>
de jo</w>
Lar ry</w>
actú a</w>
senti r
h echa</w>
des astro
un preced
recop il
empr endi
añ a</w>
invit ation</w>
st ad
warm ing</w>
pun tu
genoci de</w>
bar ely</w>
de par
band as</w>
N ep
Venez uela</w>
contr actual</w>
Ki oto</w>
critici sms</w>
S L</w>
coordin ating</w>
recal car</w>
so ñ
mp ed</w>
implic aciones</w>
d ores</w>
public ado</w>
critici sed</w>
identi fication</w>
form ally</w>
den eg
arr astr
entr an</w>
N et
ver la</w>
ind er</w>
cam in
mo dest</w>
mo stly</w>
mor atoria</w>
presid entes</w>
v enci
centr arnos</w>
. 5</w>
centr ado</w>
Á r
mó vil</w>
habr íamos</w>
ten sión</w>
secon d
cam era</w>
pre mis
Direc ción</w>
asu mido</w>
vali oso</w>
R ap
co cin
spar e</w>
abier tamente</w>
Christi ans</w>
ór ica</w>
as c
pe ores</w>
or ado</w>
com ponentes</w>
h h</w>
to ys</w>
entab lar</w>
DE M</w>
Barro t</w>
pant al
dead lines</w>
Lam y</w>
cre ó</w>
dif fer</w>
assess ed</w>
forest ales</w>
consigui ó</w>
reconoc emos</w>
pat ent
plá tanos</w>
stud ent</w>
sec ción</w>
he imer</w>
rel ative</w>
reci én</w>
ro l</w>
ab uelo</w>
Est án</w>
news paper</w>
dec om
manifi esta</w>
Re hn</w>
Mal m
pre domin
op one</w>
gr ants</w>
fin landesa</w>
pestici des</w>
deci dida</w>
dis abilities</w>
lev anta</w>
ten d</w>
6 1</w>
mol esta</w>
qu emos</w>
hal t</w>
autom o
Re ally</w>
compli ed</w>
habit u
il legally</w>
isol ated</w>
a ho
M mm</w>
p in</w>
re viewed</w>
R E</w>
llam ados</w>
ob taining</w>
to pics</w>
hypo cri
Gr and
encamin ada</w>
D aph
ri gi
human e</w>
Ob ama</w>
adap tation</w>
ólic a</w>
du do</w>
qued ará</w>
l lu
S pr
coun try
compens ar</w>
ton o</w>
sufri endo</w>
mir ada</w>
contradic tion</w>
Soci alistas</w>
hacer me</w>
har der</w>
character ised</w>
Congres s</w>
twel ve</w>
est ock</w>
acep tamos</w>
te aching</w>
vend rá</w>
explo tar</w>
medic ina</w>
unpreced ented</w>
cor ren</w>
Rui j
z ing</w>
aport aciones</w>
Pro gres
d ome</w>
c tion</w>
negr a</w>
extra er</w>
did amente</w>
off ences</w>
diri ge</w>
reci tal</w>
re pro
K e
invit ado</w>
P C
persecu tion</w>
P ier
Kel ly</w>
attemp ting</w>
A mb
Cor te</w>
g ames</w>
par eja</w>
Bu enas</w>
núcle o</w>
M en
port una</w>
des pedi
B l
d able</w>
preten demos</w>
di si
ple as
re lo
interes ado</w>
é ticas</w>
S W
ci tado</w>
refus al</w>
Có digo</w>
Al ta</w>
mag ic</w>
s áb
denomin ado</w>
ver me</w>
re m
s int
cl and
My an
quer ían</w>
cland est
suel en</w>
p h</w>
fi </w>
Co de</w>
Ruij ten</w>
d adas</w>
viaj eros</w>
Daph ne</w>
Ar ge
shoul der</w>
contr aria</w>
re turning</w>
anim ar</w>
S ac
ap on
adop tando</w>
in direct</w>
arti fici
brill ante</w>
interpre ted</w>
g y</w>
ad dic
roman íes</w>
liv estock</w>
P ir
sh ock</w>
preocup ada</w>
us h</w>
ar ises</w>
desarrollar se</w>
de pendientes</w>
pro file</w>
ll ave</w>
emer ge</w>
CF SP</w>
co legio</w>
ten der</w>
he at</w>
contribu tes</w>
she ep</w>
discrimin atory</w>
dis semin
Hus sein</w>
E mi
Myan mar</w>
Obje tivos</w>
quisi éramos</w>
Mitch ell</w>
valor ar</w>
epi so
vi eron</w>
ándo le</w>
delincu entes</w>
N ob
mist ak
sur ge</w>
remo te</w>
abier tas</w>
fr uc
deber emos</w>
a sus</w>
infr acciones</w>
remo ving</w>
expres adas</w>
leg </w>
Bang lad
ide ological</w>
qu in
ju mp</w>
bus can</w>
stad t</w>
Luc as</w>
Mc Cre
lic encias</w>
delic ada</w>
re vit
j i</w>
s pre
mi tig
pen do</w>
Arge lia</w>
potenci ales</w>
e ase</w>
t ant</w>
L A</w>
defin ido</w>
ofreci do</w>
transfronteri zas</w>
man o
eng agement</w>
conf used</w>
rec esión</w>
spe aks</w>
mac ro</w>
bo x
per judiciales</w>
benefici aries</w>
ag ro
produc tiva</w>
sign als</w>
isol ation</w>
vacc in
Al an</w>
c ía</w>
sustitu ción</w>
M ah
polic ías</w>
satis fy</w>
exclu ir</w>
T ar
logr amos</w>
pr este</w>
un ido</w>
tremend ous</w>
scand al</w>
complain t</w>
sle eping</w>
facilit ating</w>
An der
xen ofobia</w>
K im</w>
Se attle</w>
colec tivos</w>
equival ente</w>
A vi
Al z
au gur
g adas</w>
lo vac
r acional</w>
xen ophobia</w>
philosoph y</w>
B our
and ante</w>
sig amos</w>
envi ó</w>
D ale</w>
ad or
dist ur
pol émi
jurídic amente</w>
Re form</w>
tr ámi
di lu
atori um</w>
dar te</w>
c y</w>
comb ine</w>
b ound
sched ule</w>
Car l</w>
some tidos</w>
certi fic
bi ological</w>
Gr ace</w>
fr ame</w>
entre tanto</w>
il s</w>
ou re</w>
enthusias m</w>
i ti
Cres po</w>
ta ine</w>
váli do</w>
An dre
o ke</w>
dió xido</w>
D A
conveni encia</w>
g it
ocul tar</w>
adol esc
ti ed</w>
justific ado</w>
low est</w>
An dy</w>
bi d</w>
cor ner</w>
bi l</w>
dedic ated</w>
war n</w>
Icel and</w>
hu ellas</w>
reclam aciones</w>
ve inti
hes it
norm ales</w>
g ento</w>
su bir</w>
pr inc
des loc
to sa</w>
ass embly</w>
sistem áticamente</w>
s ement</w>
reconoz ca</w>
oper ativo</w>
be g</w>
dej é</w>
ecológ icos</w>
li am</w>
Ukra ini
insi sto</w>
Ar ctic</w>
br an
To dos</w>
saté lite</w>
technic ally</w>
distor sion
pe t</w>
exclu de</w>
am p</w>
ner vous</w>
to car</w>
inst all
Igu aldad</w>
pu ñ
land er</w>
implic ar</w>
sim as</w>
estímu lo</w>
list ed</w>
oc ar
trans lation</w>
analy se</w>
ru b
experiment ado</w>
pa sión</w>
execu tion</w>
gh ty</w>
invest ed</w>
bast ard</w>
equi vale</w>
Jord an</w>
afec tada</w>
as pi
ti stas</w>
aqu él
tó x
Co x</w>
é si
recha z
des pren
grati tude</w>
In formación</w>
reinfor ced</w>
poten cias</w>
pur a</w>
M igu
D r
cam ar
7 6</w>
hid den</w>
Ch ic
genoci dio</w>
DE R</w>
re ina</w>
go la</w>
enf ad
ded ores</w>
McCre evy</w>
Spe cial</w>
G ot
bu t
conc ed
dol or
B yr
lle guen</w>
superi ores</w>
che que</w>
aer on
del ayed</w>
ban anas</w>
ch i</w>
pres enci
mu m</w>
defen dido</w>
S eg
sur ing</w>
agu j
pu se</w>
continu ará</w>
explo ited</w>
liqu id
it ec
A po
thre aten</w>
ri ó</w>
empha size</w>
c ine</w>
G N
pi z
dr án</w>
desmantel amiento</w>
cruci ales</w>
guid ed</w>
orgul losos</w>
ad entro</w>
con firms</w>
atr activo</w>
in suficientes</w>
dom inio</w>
deten idos</w>
lic ence</w>
in admisible</w>
adv ances</w>
govern ed</w>
me d
su mar
polici ales</w>
mor atorium</w>
pusi eron</w>
nav al</w>
cen ar</w>
desplaz amiento</w>
conduc ción</w>
manten gan</w>
sec toral</w>
8 1</w>
quanti ty</w>
ri e</w>
prud ente</w>
com mission
Gu ar
falsi ficación</w>
st y</w>
dif un
h á
Pap a</w>
escuch ando</w>
convers ación</w>
b ord
vill age</w>
har ás</w>
inst ability</w>
yn n</w>
eu v
Fir st</w>
crí ticos</w>
flu jo</w>
profes ores</w>
trans cur
especul ación</w>
utili ce</w>
geográfic a</w>
chick en</w>
paci encia</w>
plat form</w>
L ey</w>
F ue</w>
kno ck</w>
per c
S atur
M el
Ad ap
apla zamiento</w>
th a</w>
ex hi
prefer red</w>
prof ound</w>
8 8</w>
public ly</w>
clari fied</w>
H y
gr and</w>
st ories</w>
estable zcan</w>
democrá ticamente</w>
t echo</w>
men os
re z</w>
ul f</w>
k ic
sh op
propi ci
her manos</w>
tax i</w>
H it
bac ked</w>
Del ors</w>
fec has</w>
Wil liam</w>
Alz heimer</w>
tori as</w>
An gola</w>
fru to</w>
av ai
lleg ará</w>
filosof ía</w>
di bu
ater ía</w>
mutu amente</w>
complement arias</w>
oc ar</w>
quími cas</w>
pol acos</w>
de os</w>
pe z</w>
so sp
idi omas</w>
quit ec
ej empl
ali anza</w>
in comes</w>
comb ate</w>
permitir án</w>
S á
v in</w>
form es</w>
elector ales</w>
pre ferencia</w>
ain t</w>
esc ép
VI H</w>
Is landia</w>
implant ación</w>
s and
in sta</w>
Zimbab ue</w>
E ver
alegr ía</w>
contribu ya</w>
a vis
depart ment</w>
bai le</w>
acas o</w>
qu it</w>
r d</w>
Joh ann
st en</w>
D an</w>
str esses</w>
sig los</w>
arch itec
ver ás</w>
incid entes</w>
apar tam
Em ma</w>
E se</w>
tom as</w>
sett led</w>
si mb
abu ena</w>
Ro th
J ud
me al</w>
explic ado</w>
att acked</w>
cop y
ayud ando</w>
o duc
sym bol</w>
U zbe
pon drá</w>
int ing</w>
cli ent</w>
justific a</w>
mir ac
mo on</w>
emphasi ses</w>
De ber
F un
eli gible</w>
l ando</w>
co stas</w>
des ear</w>
Maur it
hor abuena</w>
on ía</w>
G il
re fuerza</w>
pu shing</w>
ic ing</w>
com pri
contr av
jor nada</w>
má tico</w>
habl emos</w>
plant a</w>
adverten cia</w>
er é</w>
enveje cimiento</w>
tom adas</w>
Pe te</w>
Musli m</w>
Ruman ia</w>
cu te</w>
T aj
priv ati
gener ated</w>
cere ales</w>
Su pre
vol ar</w>
plante adas</w>
Jes ús</w>
trat os</w>
cap tura</w>
ori sta</w>
examin ado</w>
Rach el</w>
interru m
contro lling</w>
actú e</w>
coun ting</w>
bon ita</w>
ain e</w>
Banglad esh</w>
formul adas</w>
6 4</w>
abor tion</w>
he lic
Cali for
acord ó</w>
apar atos</w>
ar quitec
R am
per seguir</w>
inde fin
b ús</w>
anis m</w>
j apon
aboli shed</w>
Jap anese</w>
espec tá
dig na</w>
forest al</w>
f luc
cum ul
B et
figu red</w>
el or
er ri
enti onal</w>
cont ing
k ins</w>
Cauc asus</w>
lic es</w>
mur der
Man del
ow ners</w>
Mat t</w>
garanti zando</w>
Capit án</w>
B C</w>
gen ous</w>
Ann an</w>
referend os</w>
R ay
work force</w>
ped í</w>
cau tela</w>
h ero</w>
atrav es
consi sti
concep ts</w>
com modi
bur dens</w>
manufac turing</w>
relev ancia</w>
H amás</w>
per juicio</w>
oul ou</w>
sk in</w>
diver se</w>
ases oramiento</w>
La w</w>
mu estras</w>
ev os</w>
T el
F E</w>
tecnológ ica</w>
dis culpa</w>
prerequisi te</w>
an exo</w>
repu tation</w>
uc aso</w>
Deci sion</w>
le tting</w>
consci ous</w>
lab ility</w>
dej amos</w>
deliber aciones</w>
hubi éramos</w>
plac ement</w>
democr acies</w>
sanit ario</w>
examin ando</w>
interv entions</w>
pat ents</w>
ba th
Mos cow</w>
in put</w>
larg os</w>
hu mili
overwhel ming</w>
fal tan</w>
si enta</w>
extre mis
secur ing</w>
en me</w>
non sense</w>
suc eda</w>
consi sts</w>
monopoli o</w>
reci pi
at em
x ity</w>
ahorr ar</w>
lament ar</w>
reflej an</w>
concep ción</w>
Her man</w>
pain ful</w>
Cá ucaso</w>
conf is
poor er</w>
Malm ström</w>
k ni
thir ty</w>
exist ed</w>
cl ási
J efe</w>
mad res</w>
c ker</w>
exi gir
no ci
ais lamiento</w>
estim adas</w>
tri un
si lent</w>
mat ado</w>
conv enc
L ind
car ecen</w>
par á
di lig
stri ve</w>
con sejos</w>
su mo</w>
elev ada</w>
en force</w>
tr ends</w>
dol lar</w>
frag ile</w>
prof esión</w>
Glob alisation</w>
communic ate</w>
under ing</w>
provoc a</w>
seri edad</w>
volunt arios</w>
recogn ising</w>
P aci
recha zamos</w>
cha ir
correspon d
dej aré</w>
fer ti
fi ables</w>
nú meros</w>
fi abilidad</w>
humanit arias</w>
sust ancia</w>
S el
auto bús</w>
comparti da</w>
mar ino</w>
extre mo</w>
preced ent</w>
G or
pe lo
Fer n
colon ial</w>
méri to</w>
super flu
as a</w>
des empleados</w>
Glob alización</w>
pon go</w>
ocasi on
­ </w>
recom iendo</w>
V e
ant ec
t ested</w>
brea the</w>
mano euv
trat amos</w>
bien venido</w>
rec í
thro wn</w>
civili sation</w>
B G</w>
ter y</w>
so vi
suspen sion</w>
IM F</w>
swit ch</w>
parci almente</w>
v ague</w>
S wi
T hor
mi ster
democr acias</w>
bear s</w>
Car los</w>
convinc ing</w>
foot ing</w>
comunic ado</w>
repercu sión</w>
P remi
ici das</w>
fing er</w>
exig imos</w>
explí citamente</w>
colec tivo</w>
y n</w>
est ad</w>
ener gies</w>
Cher no
Tr abajo</w>
limi ting</w>
pur amente</w>
bom bas</w>
dis appointment</w>
peti tion</w>
vigi lar</w>
arm amento</w>
inoc ente</w>
V en</w>
apropi adas</w>
ban k
mi ts</w>
mar es</w>
dej arlo</w>
escuch é</w>
lic ences</w>
bir d</w>
critici se</w>
cír culo</w>
Bon ino</w>
S res</w>
A E</w>
modific ada</w>
su pre
intelig entes</w>
incap acidad</w>
tic ket</w>
rap e</w>
Co hesión</w>
second ary</w>
monopoli es</w>
So lo</w>
posi tively</w>
dio xide</w>
bas an</w>
priv atización</w>
bloc ked</w>
mainstre aming</w>
an na</w>
muer en</w>
H aya</w>
cost umbre</w>
jun tas</w>
anc ell
prefi ero</w>
e ously</w>
ly n
visi tar</w>
al ber
lob by</w>
E d</w>
ev acu
c ú</w>
tem ores</w>
logr arlo</w>
re medio</w>
pri de</w>
pu s</w>
com et
avai lability</w>
re mit</w>
ira quí</w>
levant ar</w>
tori es</w>
understand able</w>
tab ling</w>
dispar ities</w>
F ri
Parlament aria</w>
v aci
us er</w>
científic as</w>
cr ap</w>
mur o</w>
grati tud</w>
god damn</w>
trans mission</w>
electró nica</w>
tox ic</w>
bas ados</w>
perten eci
ol vi
f ó
Car ter</w>
movili zar</w>
toc ante</w>
o portuna</w>
Ci viles</w>
afec tar</w>
opon go</w>
prefer encias</w>
mas a</w>
W og
p ure</w>
ten sion</w>
labor atorio</w>
dot ar</w>
re v
recomi enda</w>
z io</w>
efec tividad</w>
regul ating</w>
un equivoc
acep to</w>
f os
asign ar</w>
audi t</w>
minu ci
Alex ander</w>
estim ado</w>
D am
tras ero</w>
aim ing</w>
termin ó</w>
deliber ately</w>
án doles</w>
bo ther</w>
ni ght
y ard</w>
p ico</w>
cor te</w>
nacion alidad</w>
humanit ario</w>
pr int</w>
fluc tu
én dome</w>
enu mer
M an</w>
is s
Mandel son</w>
Nei gh
resid ents</w>
N ab
volun te
aspir ations</w>
D y
des leal</w>
Jef f</w>
D O</w>
re acciones</w>
V a</w>
re ú
pu shed</w>
Mos cú</w>
selec tion</w>
opon en</w>
qu o</w>
m am
benefici an</w>
preten d</w>
siti os</w>
oblig ada</w>
limpi a</w>
id én
di entes</w>
fracas ado</w>
resu me</w>
culp ables</w>
celebr ate</w>
tra fic
n at
simul tan
im a</w>
auditor ía</w>
work place</w>
Lis a</w>
dif f</w>
chec king</w>
postpon ed</w>
l ays</w>
pronunci ado</w>
gr ass</w>
ru tas</w>
li p</w>
integr ating</w>
complic ada</w>
6 9</w>
jef es</w>
Wog au</w>
estudi ando</w>
menti ra</w>
eng ine
resol verse</w>
su puest
ár abe</w>
en sures</w>
cu ento</w>
v ámonos</w>
fruc tí
Administr ación</w>
matern idad</w>
mo ther
ambigu ous</w>
aranc eles</w>
segur as</w>
ancell or</w>
viol ated</w>
ofre zca</w>
asesin ado</w>
pipe line</w>
Cu ando</w>
St al
pl ed</w>
braz o</w>
w a</w>
Med ina</w>
dor f</w>
cu ello</w>
L ama</w>
Col lins</w>
8 3</w>
Car diff</w>
ou los</w>
exp and</w>
al as</w>
Adap tación</w>
seri os</w>
re za</w>
par k</w>
il lu
men se</w>
V an
Ple ase</w>
ac ero</w>
compar e</w>
my ster
ter ly</w>
O n</w>
e jo</w>
public ation</w>
per ver
hi ll</w>
confi amos</w>
ow ned</w>
án imo</w>
Califor nia</w>
es pi
ali ados</w>
Occid ente</w>
per ros</w>
ó gen
awa it</w>
diag nó
elimin ation</w>
norteameric anos</w>
defini tive</w>
prot esta</w>
trabaj amos</w>
H ere</w>
re loc
rec ession</w>
leg e</w>
aj u
abandon o</w>
evolu tion</w>
jud ges</w>
or dered</w>
desapar ecer</w>
plagu icidas</w>
pape les</w>
tr um</w>
voc es</w>
encour agement</w>
condem nation</w>
reve aled</w>
h anging</w>
in equality</w>
0 .000</w>
recuer das</w>
S ure</w>
vo ices</w>
bun ch</w>
des igualdad</w>
cap tur
manifest ación</w>
Byr ne</w>
inter net</w>
S econ
narro w</w>
ang le</w>
reme dy</w>
kil ome
detall ado</w>
y eron</w>
parliament arians</w>
enérg icamente</w>
repu tación</w>
lar gas</w>
o dia</w>
vol ati
Emi ly</w>
g el</w>
di fi
monopoli os</w>
het or
cer teza</w>
An nie</w>
W H
on ably</w>
zap atos</w>
cl on
pá gin
Nob el</w>
vac un
al um
pu lled</w>
ear marked</w>
leg ítima</w>
r hetor
lleg ando</w>
ju red</w>
in aceptables</w>
h m</w>
C ru
conclu ding</w>
pr ints</w>
ro mpi
M om
Cu áles</w>
B ab
f also</w>
ir rever
ju eces</w>
Hit ler</w>
em plaz
ca ído</w>
end t</w>
sud den</w>
ari zación</w>
J ason</w>
g ó</w>
G A</w>
problem atic</w>
autom ovi
Gar cía</w>
as till
fle ets</w>
cal entamiento</w>
Gonz á
austr í
dis mant
Re fu
0 8</w>
conv entional</w>
res ía</w>
provi sion
mo thers</w>
sem estre</w>
ation als</w>
priorit arios</w>
vali osa</w>
p int
th ur</w>
guar da</w>
Chic ago</w>
an om
bra ve</w>
itali anos</w>
págin as</w>
dai ry</w>
f ed</w>
z y</w>
col óg
it ative</w>
wish ing</w>
par ame
re productive</w>
Pri ze</w>
An ton
des een</w>
Ac c
S H
tori os</w>
An k
dis placed</w>
Cas a</w>
acqui red</w>
accoun table</w>
an gul
sep an</w>
remo to</w>
termin a</w>
ph rase</w>
o ye</w>
su scep
k ne
D ave</w>
Fon taine</w>
per ra</w>
li ghts</w>
Gonzá lez</w>
Z o
al tas</w>
pro xi
sor s</w>
tri st
swi f
Democr at</w>
do gs</w>
rad ica</w>
progres ar</w>
pre ference</w>
discu tiendo</w>
recep tion</w>
permi tiendo</w>
e ability</w>
A raf
ca ke</w>
pe lea</w>
cir cu
ro se</w>
weak nesses</w>
pen as</w>
surpri sing</w>
promot es</w>
ma to</w>
resor t</w>
guid ance</w>
compren dido</w>
asi ento</w>
hi poc
LI FE</w>
lag unas</w>
p adec
cuán tos</w>
Neigh bour
profund as</w>
L or
decir nos</w>
nomin al</w>
er das</w>
ci ru
mi da</w>
Stre et</w>
is try</w>
contempl ar</w>
feasi ble</w>
ar du
Araf at</w>
initi ate</w>
Cu ar
simpli fying</w>
human s</w>
abor to</w>
pelí culas</w>
vuel ven</w>
perpe tu
emi ciclo</w>
mercur y</w>
G AT
D í
caus ar</w>
Az ores</w>
rel uc
der ía</w>
ár selo</w>
de lici
tarif as</w>
bir ds</w>
L ul
symbo lic</w>
separ ation</w>
car o</w>
al arma</w>
le ts</w>
s es
horr or</w>
weak ness</w>
Bur un
sir va</w>
recor r
gun s</w>
C .</w>
ex acto</w>
embar ras
impres sive</w>
pene tr
itch en</w>
radio active</w>
multin ational</w>
respon ded</w>
cont est
Doc </w>
ex ert</w>
pro ves</w>
Li eutenant</w>
mol est
transfer encias</w>
jurisdic ción</w>
v í</w>
ori o</w>
Fr ank
g le</w>
abo lish</w>
Mer kel</w>
prag matic</w>
apar ición</w>
min a</w>
dr y</w>
IN I</w>
Neighbour hood</w>
Nec es
in fin
prot estas</w>
op tado</w>
centur ies</w>
espaci al</w>
after wards</w>
br icas</w>
cr ying</w>
lau gh</w>
estu pendo</w>
di su
O EC
on y
j ack
limpi eza</w>
Medi a</w>
de do</w>
a puesto</w>
tic kets</w>
r ac</w>
aranc el
denunci ar</w>
them e</w>
dis advantage</w>
cad á
Ar thur</w>
requi ring</w>
g ation</w>
par ezca</w>
di alo
S a
cre cer</w>
oper ativa</w>
mili tari
v as
gas ol
hacer te</w>
est anc
encour ages</w>
vari edad</w>
fab r
mercur io</w>
deb an</w>
o ked</w>
car es</w>
vac as</w>
focu ses</w>
tori ales</w>
oper an</w>
T O
cor ner
copy right</w>
An ne</w>
o í</w>
espec tro</w>
mobili sation</w>
Col lege</w>
Sah ara</w>
T ed</w>
agr aria</w>
progresi va</w>
leg s</w>
B 6</w>
up hold</w>
L ag
bi ocar
P ac
bank rup
man da</w>
declar ó</w>
Secon d</w>
Wi th</w>
sc enario</w>
em an</w>
ear n</w>
incap az</w>
OEC D</w>
des nu
swi ft</w>
La ura</w>
exist ía</w>
harmon ization</w>
re mot
fru it
pan el</w>
petro l
bier on</w>
accep ts</w>
com pi
bri lli
i ban</w>
cotidi ana</w>
ou ts</w>
OC DE</w>
Sch mid
di se</w>
conoc í</w>
deb amos</w>
comien zos</w>
. A.</w>
speci fied</w>
antigu as</w>
s tica</w>
res titu
in directly</w>
depend ing</w>
trans national</w>
F MI</w>
quanti ties</w>
multin ationals</w>
shi f
inter f
lic encia</w>
hy dro
pec uli
desper ate</w>
U R</w>
ingres o</w>
st ed
stor m</w>
T w
du eñ
bre aks</w>
n is</w>
short age</w>
nec k</w>
at ar</w>
ak er</w>
present amos</w>
diri jo</w>
ac ad
atra vi
in en</w>
mor tal</w>
previ amente</w>
l end</w>
F al
interf ere</w>
fat al</w>
des c
indemni zación</w>
adquisi ción</w>
intensi dad</w>
7 3</w>
conjun ction</w>
gg ed</w>
Roth ley</w>
acab e</w>
aplau do</w>
ther ap
n is
Th en</w>
senti rse</w>
de bilidad</w>
Le o</w>
espectá culo</w>
atent amente</w>
s port
comm and</w>
F IN</w>
refor zado</w>
broadcast ing</w>
am bul
assum ed</w>
lan zamiento</w>
in jured</w>
Do yle</w>
flo tas</w>
acer tada</w>
suspend er</w>
aliment arios</w>
Su b
pur chase</w>
perman entes</w>
ap point</w>
Ar gent
visi tas</w>
cumpli endo</w>
earthqu ake</w>
preguntar nos</w>
imag ino</w>
comple xity</w>
concentr ated</w>
Ju ventud</w>
tim a</w>
profession als</w>
enh ancing</w>
signific ativos</w>
tem e</w>
Re gul
smo oth</w>
bar bar
hu evos</w>
peripher al</w>
aument ará</w>
dej es</w>
efec tivas</w>
salvaguar dia</w>
expres sly</w>
me tal</w>
Al go</w>
pag ado</w>
hom ici
estratég icas</w>
critic ar</w>
en z</w>
escu che</w>
hap pi
t sun
qu íes</w>
de udas</w>
prest ando</w>
recti fic
eng ine</w>
sho oting</w>
estrel la</w>
am érica</w>
dom ingo</w>
recogni zed</w>
bi bli
armam ent</w>
tom ará</w>
min ors</w>
salud able</w>
di ox
rejec ting</w>
fi lled</w>
pursu it</w>
pleas ant</w>
liber ty</w>
Ch ancellor</w>
evid entes</w>
elec tro
adjust ments</w>
ag o
autom áticamente</w>
W el
V ec
n az
ass ment</w>
conci enci
ri onal</w>
eci dos</w>
arreg lar
propi etarios</w>
le an</w>
ban dera</w>
F our
en forced</w>
hipoc resía</w>
ge ant</w>
fal sa</w>
B ah
s am
al levi
ban ning</w>
enem ig
fil tr
d op
comis ario</w>
otor ga</w>
- de</w>
enc aj
Johann es
s anci
Car ol
inten se</w>
F EA
air line</w>
consul t</w>
regi on
f an</w>
pub lish</w>
n ena</w>
en vía</w>
t amiento</w>
sol v
profundi zar</w>
rel an
de tenido</w>
supuest amente</w>
es feras</w>
cual it
conoci dos</w>
op ens</w>
spec trum</w>
sensi tivity</w>
B lu
news papers</w>
Observ atorio</w>
ciudad anas</w>
prefer ido</w>
C O</w>
b ell</w>
val ent
inici ales</w>
M O
11. 30</w>
for z
ay ú
form almente</w>
má r
españ oles</w>
bloqu ear</w>
entrepreneur s</w>
present en</w>
just ment</w>
reduci endo</w>
Go als</w>
cor d</w>
mer it</w>
despren de</w>
gh s</w>
públic amente</w>
bot ella</w>
pist ola</w>
ste al</w>
hol es</w>
é monos</w>
implement ación</w>
mar cas</w>
p ack</w>
contr ab
prov inci
despier ta</w>
aconte cimiento</w>
gr am</w>
ve ía</w>
apologi se</w>
fá brica</w>
con vey</w>
ad hi
def ended</w>
ac redi
or ation</w>
do le</w>
re ch
radi ation</w>
ci </w>
no so
orient ada</w>
banc ario</w>
E li
en horabuena</w>
s ends</w>
lear nt</w>
trac eability</w>
an ne</w>
du ele</w>
G ary</w>
V il
llam e</w>
apartam ento</w>
al arm</w>
al lies</w>
permitir se</w>
ar is
Tay lor</w>
priv atisation</w>
educ ativos</w>
ru mor
stabili sation</w>
e ag
quier do</w>
biocar burantes</w>
ét nicas</w>
rati ficar</w>
proteg idos</w>
ier to</w>
urg ed</w>
impli es</w>
in justo</w>
so sti
Bo ard</w>
dig it
vie w
P adre</w>
casu alidad</w>
al ice</w>
cami ón</w>
doc tr
con qui
c lic
smi le</w>
gh o
ac king</w>
ín dice</w>
Mat the
I D</w>
permis os</w>
d a
cl oning</w>
N i</w>
inici almente</w>
alli ance</w>
Satur day</w>
demonstr ations</w>
ven gan</w>
orden ación</w>
neo liberal</w>
circ le</w>
prostitu tion</w>
atur as</w>
Si erra</w>
7 4</w>
pi </w>
necesit ar</w>
Y emen</w>
judici ary</w>
fren ar</w>
administr ations</w>
Geor gi
obten ción</w>
preserv ation</w>
Ank ara</w>
corri endo</w>
k itchen</w>
continu ous</w>
organ s</w>
frau dul
co ach</w>
prev ail</w>
r ender</w>
desp leg
fe lices</w>
Be hr
ac re</w>
be an</w>
renew al</w>
I a</w>
iz e</w>
g ama</w>
regrett ably</w>
obje tiva</w>
cas tigo</w>
depri ved</w>
convers ation</w>
aclar ación</w>
consider en</w>
ref using</w>
al ert</w>
adop tarse</w>
è re</w>
á j
De tec
re actions</w>
form ado</w>
conduc tor</w>
Coton ou</w>
con g
Jun cker</w>
optimis tic</w>
in discrimin
dis cul
moment um</w>
S hu
1 00
Mar ía</w>
vot en</w>
clo thing</w>
id ores</w>
bl anc
A 6</w>
H ann
al cal
explici t</w>
compon ents</w>
rul ed</w>
fulfi lling</w>
ton gue</w>
fenó menos</w>
defin ite</w>
Uzbe k
im bé
celebr ando</w>
lóg icamente</w>
mani obra</w>
empeñ o</w>
tar la</w>
gan aderos</w>
competi tivos</w>
Lul ling</w>
U r
sex y</w>
as ent
repe tidas</w>
connec tions</w>
anci ent</w>
bi llions</w>
resul tó</w>
privileg ed</w>
mó s
vi ento</w>
reduci da</w>
argu ment
exten der</w>
atten ded</w>
Gali cia</w>
sin er
establish es</w>
otor gar</w>
subsi dy</w>
An tes</w>
at mós
ad mitt
encant aría</w>
public ar</w>
ro str
cuer pos</w>
anci ller</w>
Danu be</w>
TE R</w>
proteg e</w>
adqui rido</w>
fru tos</w>
ll or
Maurit ania</w>
determin ing</w>
estableci ó</w>
gen ética</w>
ten sions</w>
hab laba</w>
mal aria</w>
enc ad
cay ó</w>
musulman es</w>
Ho ly</w>
organis ing</w>
L au
p atern
fam oso</w>
uc co</w>
deci des</w>
0 3</w>
Burun di</w>
C astro</w>
tar dar</w>
[...]
